{
  "version": "1.0",
  "truncation": {
    "direction": "Right",
    "max_length": 512,
    "strategy": "LongestFirst",
    "stride": 0
  },
  "padding": {
    "strategy": "BatchLongest",
    "direction": "Right",
    "pad_to_multiple_of": null,
    "pad_id": 0,
    "pad_type_id": 0,
    "pad_token": "[PAD]"
  },
  "added_tokens": [
    {
      "id": 0,
      "content": "[PAD]",
      "single_word": false,
      "lstrip": false,
      "rstrip": false,
      "normalized": false,
      "special": true
    },
    {
      "id": 1,
      "content": "[UNK]",
      "single_word": false,
      "lstrip": false,
      "rstrip": false,
      "normalized": false,
      "special": true
    },
    {
      "id": 2,
      "content": "[CLS]",
      "single_word": false,
      "lstrip": false,
      "rstrip": false,
      "normalized": false,
      "special": true
    },
    {
      "id": 3,
      "content": "[SEP]",
      "single_word": false,
      "lstrip": false,
      "rstrip": false,
      "normalized": false,
      "special": true
    },
    {
      "id": 4,
      "content": "[MASK]",
      "single_word": false,
      "lstrip": false,
      "rstrip": false,
      "normalized": false,
      "special": true
    }
  ],
  "normalizer": {
    "type": "BertNormalizer",
    "clean_text": true,
    "handle_chinese_chars": true,
    "strip_accents": null,
    "lowercase": true
  },
  "pre_tokenizer": {
    "type": "BertPreTokenizer"
  },
  "post_processor": {
    "type": "TemplateProcessing",
    "single": [
      {
        "SpecialToken": {
          "id": "[CLS]",
          "type_id": 0
        }
      },
      {
        "Sequence": {
          "id": "A",
          "type_id": 0
        }
      },
      {
        "SpecialToken": {
          "id": "[SEP]",
          "type_id": 0
        }
      }
    ],
    "pair": [
      {
        "SpecialToken": {
          "id": "[CLS]",
          "type_id": 0
        }
      },
      {
        "Sequence": {
          "id": "A",
          "type_id": 0
        }
      },
      {
        "SpecialToken": {
          "id": "[SEP]",
          "type_id": 0
        }
      },
      {
        "Sequence": {
          "id": "B",
          "type_id": 1
        }
      },
      {
        "SpecialToken": {
          "id": "[SEP]",
          "type_id": 1
        }
      }
    ],
    "special_tokens": {
      "[CLS]": {
        "id": "[CLS]",
        "ids": [
          2
        ],
        "tokens": [
          "[CLS]"
        ]
      },
      "[SEP]": {
        "id": "[SEP]",
        "ids": [
          3
        ],
        "tokens": [
          "[SEP]"
        ]
      }
    }
  },
  "decoder": {
    "type": "WordPiece",
    "prefix": "##",
    "cleanup": true
  },
  "model": {
    "type": "WordPiece",
    "unk_token": "[UNK]",
    "continuing_subword_prefix": "##",
    "max_input_chars_per_word": 100,
    "vocab": {
      "[PAD]": 0,
      "[UNK]": 1,
      "[CLS]": 2,
      "[SEP]": 3,
      "[MASK]": 4,
      "!": 5,
      "\"": 6,
      "#": 7,
      "$": 8,
      "%": 9,
      "&": 10,
      "'": 11,
      "(": 12,
      ")": 13,
      "*": 14,
      "+": 15,
      ",": 16,
      "-": 17,
      ".": 18,
      "/": 19,
      "0": 20,
      "1": 21,
      "2": 22,
      "3": 23,
      "4": 24,
      "5": 25,
      "6": 26,
      "7": 27,
      "8": 28,
      "9": 29,
      ":": 30,
      ";": 31,
      "<": 32,
      "=": 33,
      ">": 34,
      "?": 35,
      "@": 36,
      "[": 37,
      "]": 38,
      "^": 39,
      "_": 40,
      "`": 41,
      "a": 42,
      "b": 43,
      "c": 44,
      "d": 45,
      "e": 46,
      "f": 47,
      "g": 48,
      "h": 49,
      "i": 50,
      "j": 51,
      "k": 52,
      "l": 53,
      "m": 54,
      "n": 55,
      "o": 56,
      "p": 57,
      "q": 58,
      "r": 59,
      "s": 60,
      "t": 61,
      "u": 62,
      "v": 63,
      "w": 64,
      "x": 65,
      "y": 66,
      "z": 67,
      "{": 68,
      "|": 69,
      "}": 70,
      "~": 71,
      "¡": 72,
      "¢": 73,
      "£": 74,
      "¤": 75,
      "¥": 76,
      "¦": 77,
      "§": 78,
      "¨": 79,
      "©": 80,
      "ª": 81,
      "«": 82,
      "¬": 83,
      "®": 84,
      "°": 85,
      "±": 86,
      "²": 87,
      "³": 88,
      "´": 89,
      "¶": 90,
      "·": 91,
      "¸": 92,
      "¹": 93,
      "º": 94,
      "»": 95,
      "¼": 96,
      "½": 97,
      "¿": 98,
      "×": 99,
      "à": 100,
      "á": 101,
      "â": 102,
      "ã": 103,
      "ä": 104,
      "å": 105,
      "æ": 106,
      "ç": 107,
      "è": 108,
      "é": 109,
      "ê": 110,
      "ë": 111,
      "ì": 112,
      "í": 113,
      "î": 114,
      "ï": 115,
      "ð": 116,
      "ñ": 117,
      "ó": 118,
      "ô": 119,
      "õ": 120,
      "ö": 121,
      "÷": 122,
      "ø": 123,
      "ù": 124,
      "ú": 125,
      "û": 126,
      "ü": 127,
      "ý": 128,
      "þ": 129,
      "ÿ": 130,
      "ā": 131,
      "ă": 132,
      "ą": 133,
      "ć": 134,
      "č": 135,
      "đ": 136,
      "ę": 137,
      "ě": 138,
      "ğ": 139,
      "ġ": 140,
      "ģ": 141,
      "ĥ": 142,
      "ħ": 143,
      "ī": 144,
      "ı": 145,
      "ķ": 146,
      "ł": 147,
      "ō": 148,
      "ő": 149,
      "ř": 150,
      "ś": 151,
      "ŝ": 152,
      "ş": 153,
      "š": 154,
      "ŧ": 155,
      "ū": 156,
      "ź": 157,
      "ż": 158,
      "ž": 159,
      "ǿ": 160,
      "ș": 161,
      "ɑ": 162,
      "ə": 163,
      "ʹ": 164,
      "ʾ": 165,
      "ʿ": 166,
      "˘": 167,
      "̆": 168,
      "̇": 169,
      "̈": 170,
      "̧": 171,
      "ά": 172,
      "έ": 173,
      "ή": 174,
      "ί": 175,
      "α": 176,
      "β": 177,
      "γ": 178,
      "δ": 179,
      "ε": 180,
      "η": 181,
      "θ": 182,
      "ι": 183,
      "κ": 184,
      "λ": 185,
      "μ": 186,
      "ν": 187,
      "ο": 188,
      "π": 189,
      "ρ": 190,
      "σ": 191,
      "τ": 192,
      "υ": 193,
      "φ": 194,
      "χ": 195,
      "ω": 196,
      "ό": 197,
      "ύ": 198,
      "а": 199,
      "б": 200,
      "в": 201,
      "г": 202,
      "д": 203,
      "е": 204,
      "ж": 205,
      "з": 206,
      "и": 207,
      "й": 208,
      "к": 209,
      "л": 210,
      "м": 211,
      "н": 212,
      "о": 213,
      "п": 214,
      "р": 215,
      "с": 216,
      "т": 217,
      "у": 218,
      "ф": 219,
      "х": 220,
      "ц": 221,
      "ч": 222,
      "ш": 223,
      "щ": 224,
      "ы": 225,
      "ь": 226,
      "э": 227,
      "ю": 228,
      "я": 229,
      "ѕ": 230,
      "і": 231,
      "ա": 232,
      "ի": 233,
      "ն": 234,
      "ո": 235,
      "ր": 236,
      "א": 237,
      "ב": 238,
      "ה": 239,
      "ו": 240,
      "ח": 241,
      "י": 242,
      "ל": 243,
      "מ": 244,
      "ר": 245,
      "ש": 246,
      "ת": 247,
      "،": 248,
      "ء": 249,
      "آ": 250,
      "أ": 251,
      "إ": 252,
      "ئ": 253,
      "ا": 254,
      "ب": 255,
      "ة": 256,
      "ت": 257,
      "ث": 258,
      "ج": 259,
      "ح": 260,
      "خ": 261,
      "د": 262,
      "ذ": 263,
      "ر": 264,
      "ز": 265,
      "س": 266,
      "ش": 267,
      "ص": 268,
      "ض": 269,
      "ط": 270,
      "ع": 271,
      "غ": 272,
      "ـ": 273,
      "ف": 274,
      "ق": 275,
      "ك": 276,
      "ل": 277,
      "م": 278,
      "ن": 279,
      "ه": 280,
      "و": 281,
      "ى": 282,
      "ي": 283,
      "ً": 284,
      "َ": 285,
      "ُ": 286,
      "ِ": 287,
      "ّ": 288,
      "ْ": 289,
      "٫": 290,
      "پ": 291,
      "ک": 292,
      "گ": 293,
      "ی": 294,
      "ा": 295,
      "ন": 296,
      "র": 297,
      "া": 298,
      "ি": 299,
      "ে": 300,
      "্": 301,
      "ก": 302,
      "น": 303,
      "ร": 304,
      "อ": 305,
      "า": 306,
      "เ": 307,
      "่": 308,
      "ᴏ": 309,
      "ḥ": 310,
      "ḳ": 311,
      "ṣ": 312,
      "ṭ": 313,
      "–": 314,
      "—": 315,
      "‘": 316,
      "’": 317,
      "‚": 318,
      "“": 319,
      "”": 320,
      "„": 321,
      "‟": 322,
      "•": 323,
      "…": 324,
      "′": 325,
      "″": 326,
      "‹": 327,
      "›": 328,
      "€": 329,
      "₺": 330,
      "™": 331,
      "←": 332,
      "→": 333,
      "−": 334,
      "■": 335,
      "►": 336,
      "●": 337,
      "★": 338,
      "☺": 339,
      "♥": 340,
      "♦": 341,
      "✔": 342,
      "❤": 343,
      "➖": 344,
      "⠀": 345,
      "、": 346,
      "。": 347,
      "あ": 348,
      "い": 349,
      "う": 350,
      "お": 351,
      "か": 352,
      "が": 353,
      "き": 354,
      "く": 355,
      "こ": 356,
      "さ": 357,
      "し": 358,
      "す": 359,
      "た": 360,
      "っ": 361,
      "て": 362,
      "で": 363,
      "と": 364,
      "な": 365,
      "に": 366,
      "の": 367,
      "は": 368,
      "ま": 369,
      "も": 370,
      "ら": 371,
      "り": 372,
      "る": 373,
      "れ": 374,
      "を": 375,
      "ん": 376,
      "ア": 377,
      "イ": 378,
      "ク": 379,
      "ス": 380,
      "ッ": 381,
      "ト": 382,
      "ラ": 383,
      "リ": 384,
      "ル": 385,
      "ン": 386,
      "・": 387,
      "ー": 388,
      "一": 389,
      "三": 390,
      "上": 391,
      "下": 392,
      "不": 393,
      "个": 394,
      "中": 395,
      "么": 396,
      "乐": 397,
      "了": 398,
      "争": 399,
      "京": 400,
      "人": 401,
      "以": 402,
      "会": 403,
      "作": 404,
      "信": 405,
      "全": 406,
      "公": 407,
      "出": 408,
      "分": 409,
      "北": 410,
      "发": 411,
      "可": 412,
      "合": 413,
      "吗": 414,
      "和": 415,
      "品": 416,
      "国": 417,
      "图": 418,
      "在": 419,
      "地": 420,
      "多": 421,
      "大": 422,
      "天": 423,
      "奖": 424,
      "子": 425,
      "学": 426,
      "官": 427,
      "家": 428,
      "小": 429,
      "市": 430,
      "平": 431,
      "年": 432,
      "开": 433,
      "彩": 434,
      "心": 435,
      "快": 436,
      "怎": 437,
      "成": 438,
      "我": 439,
      "手": 440,
      "料": 441,
      "新": 442,
      "方": 443,
      "日": 444,
      "时": 445,
      "是": 446,
      "最": 447,
      "月": 448,
      "有": 449,
      "期": 450,
      "本": 451,
      "机": 452,
      "果": 453,
      "水": 454,
      "法": 455,
      "港": 456,
      "版": 457,
      "特": 458,
      "理": 459,
      "生": 460,
      "用": 461,
      "的": 462,
      "码": 463,
      "神": 464,
      "票": 465,
      "网": 466,
      "美": 467,
      "肖": 468,
      "能": 469,
      "行": 470,
      "覺": 471,
      "论": 472,
      "说": 473,
      "谋": 474,
      "赛": 475,
      "车": 476,
      "金": 477,
      "霸": 478,
      "香": 479,
      "马": 480,
      "高": 481,
      "﴾": 482,
      "﴿": 483,
      "️": 484,
      "！": 485,
      "（": 486,
      "）": 487,
      "，": 488,
      "🇷": 489,
      "🇹": 490,
      "🏻": 491,
      "👉": 492,
      "👍": 493,
      "👏": 494,
      "💕": 495,
      "😀": 496,
      "😂": 497,
      "😉": 498,
      "😊": 499,
      "😍": 500,
      "🙁": 501,
      "🙂": 502,
      "🙏": 503,
      "🤗": 504,
      "##u": 505,
      "##n": 506,
      "##a": 507,
      "##l": 508,
      "##ı": 509,
      "##i": 510,
      "##g": 511,
      "##e": 512,
      "##d": 513,
      "##r": 514,
      "##m": 515,
      "##h": 516,
      "##y": 517,
      "##t": 518,
      "##1": 519,
      "##3": 520,
      "##5": 521,
      "##ş": 522,
      "##k": 523,
      "##е": 524,
      "##ç": 525,
      "##v": 526,
      "##z": 527,
      "##¦": 528,
      "##´": 529,
      "##s": 530,
      "##f": 531,
      "##o": 532,
      "##ü": 533,
      "##c": 534,
      "##ğ": 535,
      "##p": 536,
      "##ö": 537,
      "##b": 538,
      "##â": 539,
      "##9": 540,
      "##8": 541,
      "##2": 542,
      "##4": 543,
      "##6": 544,
      "##7": 545,
      "##0": 546,
      "##理": 547,
      "##ñ": 548,
      "##ا": 549,
      "##س": 550,
      "##ز": 551,
      "##ی": 552,
      "##j": 553,
      "##ý": 554,
      "##w": 555,
      "##ル": 556,
      "##ア": 557,
      "##ل": 558,
      "##ك": 559,
      "##ء": 560,
      "##x": 561,
      "##î": 562,
      "##å": 563,
      "##ÿ": 564,
      "##ä": 565,
      "##±": 566,
      "##þ": 567,
      "##ð": 568,
      "##̆": 569,
      "##q": 570,
      "##は": 571,
      "##מ": 572,
      "##ל": 573,
      "##א": 574,
      "##י": 575,
      "##ー": 576,
      "##π": 577,
      "##ο": 578,
      "##χ": 579,
      "##ρ": 580,
      "##η": 581,
      "##σ": 582,
      "##α": 583,
      "##ν": 584,
      "##ā": 585,
      "##é": 586,
      "##о": 587,
      "##у": 588,
      "##ш": 589,
      "##и": 590,
      "##ô": 591,
      "##ī": 592,
      "##č": 593,
      "##̧": 594,
      "##ր": 595,
      "##ա": 596,
      "##ո": 597,
      "##ն": 598,
      "##ū": 599,
      "##û": 600,
      "##і": 601,
      "##®": 602,
      "##ã": 603,
      "##¢": 604,
      "##ι": 605,
      "##λ": 606,
      "##τ": 607,
      "##ή": 608,
      "##ω": 609,
      "##💕": 610,
      "##р": 611,
      "##н": 612,
      "##ж": 613,
      "##º": 614,
      "##̇": 615,
      "##ġ": 616,
      "##ō": 617,
      "##ص": 618,
      "##ح": 619,
      "##ي": 620,
      "##ن": 621,
      "##м": 622,
      "##л": 623,
      "##ø": 624,
      "##ª": 625,
      "##ù": 626,
      "##°": 627,
      "##¨": 628,
      "##õ": 629,
      "##á": 630,
      "##ю": 631,
      "##б": 632,
      "##т": 633,
      "##ь": 634,
      "##с": 635,
      "##к": 636,
      "##ᴏ": 637,
      "##í": 638,
      "##い": 639,
      "##に": 640,
      "##れ": 641,
      "##て": 642,
      "##ま": 643,
      "##す": 644,
      "##̈": 645,
      "##是": 646,
      "##¬": 647,
      "##在": 648,
      "##高": 649,
      "##网": 650,
      "##开": 651,
      "##ر": 652,
      "##و": 653,
      "##า": 654,
      "##ร": 655,
      "##เ": 656,
      "##น": 657,
      "##😍": 658,
      "##リ": 659,
      "##è": 660,
      "##½": 661,
      "##ï": 662,
      "##ģ": 663,
      "##合": 664,
      "##的": 665,
      "##大": 666,
      "##分": 667,
      "##信": 668,
      "##一": 669,
      "##ф": 670,
      "##а": 671,
      "##з": 672,
      "##ы": 673,
      "##в": 674,
      "##快": 675,
      "##я": 676,
      "##ف": 677,
      "##ه": 678,
      "##ش": 679,
      "##د": 680,
      "##β": 681,
      "##μ": 682,
      "##ε": 683,
      "##ί": 684,
      "##ķ": 685,
      "##ר": 686,
      "##غ": 687,
      "##ب": 688,
      "##ő": 689,
      "##成": 690,
      "##年": 691,
      "##生": 692,
      "##ン": 693,
      "##の": 694,
      "##手": 695,
      "##ș": 696,
      "##ê": 697,
      "##特": 698,
      "##ʾ": 699,
      "##京": 700,
      "##赛": 701,
      "##车": 702,
      "##发": 703,
      "##中": 704,
      "##国": 705,
      "##下": 706,
      "##人": 707,
      "##が": 708,
      "##で": 709,
      "##あ": 710,
      "##り": 711,
      "##п": 712,
      "##ѕ": 713,
      "##г": 714,
      "##家": 715,
      "##上": 716,
      "##有": 717,
      "##ा": 718,
      "##ǿ": 719,
      "##х": 720,
      "##¤": 721,
      "##ک": 722,
      "##く": 723,
      "##地": 724,
      "##な": 725,
      "##出": 726,
      "##か": 727,
      "##る": 728,
      "##を": 729,
      "##ラ": 730,
      "##彩": 731,
      "##怎": 732,
      "##么": 733,
      "##ْ": 734,
      "##م": 735,
      "##َ": 736,
      "##ِ": 737,
      "##ة": 738,
      "##ę": 739,
      "##ч": 740,
      "##图": 741,
      "##š": 742,
      "##水": 743,
      "##了": 744,
      "##肖": 745,
      "##最": 746,
      "##天": 747,
      "##机": 748,
      "##料": 749,
      "##ت": 750,
      "##ë": 751,
      "##覺": 752,
      "##ž": 753,
      "##ق": 754,
      "##ئ": 755,
      "##全": 756,
      "##法": 757,
      "##用": 758,
      "##品": 759,
      "##ɑ": 760,
      "##多": 761,
      "##¼": 762,
      "##ع": 763,
      "##さ": 764,
      "##φ": 765,
      "##υ": 766,
      "##κ": 767,
      "##ό": 768,
      "##ó": 769,
      "##ו": 770,
      "##ת": 771,
      "##ì": 772,
      "##行": 773,
      "##时": 774,
      "##×": 775,
      "##ի": 776,
      "##香": 777,
      "##港": 778,
      "##奖": 779,
      "##码": 780,
      "##学": 781,
      "##个": 782,
      "##新": 783,
      "##方": 784,
      "##可": 785,
      "##以": 786,
      "##市": 787,
      "##÷": 788,
      "##™": 789,
      "##小": 790,
      "##马": 791,
      "##ц": 792,
      "##不": 793,
      "##和": 794,
      "##た": 795,
      "##đ": 796,
      "##き": 797,
      "##お": 798,
      "##ב": 799,
      "##🙏": 800,
      "##😊": 801,
      "##ج": 802,
      "##ُ": 803,
      "##ś": 804,
      "##¸": 805,
      "##っ": 806,
      "##й": 807,
      "##่": 808,
      "##し": 809,
      "##と": 810,
      "##ん": 811,
      "##三": 812,
      "##ʹ": 813,
      "##官": 814,
      "##票": 815,
      "##ى": 816,
      "##う": 817,
      "##ă": 818,
      "##ł": 819,
      "##ą": 820,
      "##👍": 821,
      "##ə": 822,
      "##️": 823,
      "##ά": 824,
      "##イ": 825,
      "##ッ": 826,
      "##ّ": 827,
      "##神": 828,
      "##أ": 829,
      "##ً": 830,
      "##ύ": 831,
      "##作": 832,
      "##ト": 833,
      "##²": 834,
      "##😂": 835,
      "##ذ": 836,
      "##€": 837,
      "##😀": 838,
      "##🏻": 839,
      "##ě": 840,
      "##ח": 841,
      "##美": 842,
      "##😉": 843,
      "##ż": 844,
      "##ć": 845,
      "##д": 846,
      "##❤": 847,
      "##►": 848,
      "##心": 849,
      "##³": 850,
      "##à": 851,
      "##£": 852,
      "##金": 853,
      "##期": 854,
      "##ে": 855,
      "##ら": 856,
      "##э": 857,
      "##日": 858,
      "##本": 859,
      "##ħ": 860,
      "##→": 861,
      "##δ": 862,
      "##公": 863,
      "##ث": 864,
      "##ṣ": 865,
      "##ʿ": 866,
      "##会": 867,
      "##能": 868,
      "##خ": 869,
      "##ス": 870,
      "##🤗": 871,
      "##©": 872,
      "##争": 873,
      "##¹": 874,
      "##ĥ": 875,
      "##乐": 876,
      "##ク": 877,
      "##ה": 878,
      "##ř": 879,
      "##🇷": 880,
      "##্": 881,
      "##া": 882,
      "##র": 883,
      "##إ": 884,
      "##も": 885,
      "##こ": 886,
      "##我": 887,
      "##ḳ": 888,
      "##έ": 889,
      "##版": 890,
      "##ض": 891,
      "##🇹": 892,
      "##ź": 893,
      "##ก": 894,
      "##γ": 895,
      "##吗": 896,
      "##ש": 897,
      "##ú": 898,
      "##♥": 899,
      "##月": 900,
      "##ط": 901,
      "##👉": 902,
      "##子": 903,
      "##ŝ": 904,
      "##æ": 905,
      "##平": 906,
      "##پ": 907,
      "##果": 908,
      "##ḥ": 909,
      "##щ": 910,
      "##گ": 911,
      "##★": 912,
      "##ŧ": 913,
      "##北": 914,
      "##˘": 915,
      "##อ": 916,
      "##ন": 917,
      "##➖": 918,
      "##ـ": 919,
      "##论": 920,
      "##✔": 921,
      "##آ": 922,
      "##说": 923,
      "##谋": 924,
      "##☺": 925,
      "##¥": 926,
      "##ṭ": 927,
      "##−": 928,
      "##ি": 929,
      "##θ": 930,
      "##🙂": 931,
      "##霸": 932,
      "##♦": 933,
      "##👏": 934,
      "##₺": 935,
      "##⠀": 936,
      "##🙁": 937,
      "##←": 938,
      "##●": 939,
      "##■": 940,
      "##la": 941,
      "##er": 942,
      "##in": 943,
      "##an": 944,
      "##ın": 945,
      "##en": 946,
      "##ir": 947,
      "##ar": 948,
      "##lar": 949,
      "##il": 950,
      "##ak": 951,
      "##le": 952,
      "##ek": 953,
      "##ma": 954,
      "##ler": 955,
      "##de": 956,
      "##da": 957,
      "##li": 958,
      "##un": 959,
      "##lı": 960,
      "##or": 961,
      "ve": 962,
      "##et": 963,
      "##iy": 964,
      "##es": 965,
      "bir": 966,
      "##on": 967,
      "ka": 968,
      "##ur": 969,
      "##dı": 970,
      "ya": 971,
      "##im": 972,
      "##iz": 973,
      "##lan": 974,
      "##at": 975,
      "##di": 976,
      "##el": 977,
      "de": 978,
      "##as": 979,
      "##ün": 980,
      "##ay": 981,
      "##tı": 982,
      "bu": 983,
      "##em": 984,
      "##ür": 985,
      "ba": 986,
      "da": 987,
      "ol": 988,
      "##st": 989,
      "##am": 990,
      "##ik": 991,
      "##ey": 992,
      "##ların": 993,
      "##al": 994,
      "##den": 995,
      "##dan": 996,
      "##it": 997,
      "gö": 998,
      "##um": 999,
      "##ya": 1000,
      "##ları": 1001,
      "##ul": 1002,
      "##ra": 1003,
      "##ız": 1004,
      "##iş": 1005,
      "##lerin": 1006,
      "iç": 1007,
      "##ğı": 1008,
      "##du": 1009,
      "##is": 1010,
      "##ıl": 1011,
      "sa": 1012,
      "##ında": 1013,
      "yap": 1014,
      "##ok": 1015,
      "##ce": 1016,
      "baş": 1017,
      "##ık": 1018,
      "an": 1019,
      "##leri": 1020,
      "##ti": 1021,
      "##ış": 1022,
      "##ta": 1023,
      "##me": 1024,
      "##yor": 1025,
      "##ır": 1026,
      "##ol": 1027,
      "##inde": 1028,
      "##ine": 1029,
      "##sı": 1030,
      "##ük": 1031,
      "al": 1032,
      "in": 1033,
      "##esi": 1034,
      "ar": 1035,
      "##ini": 1036,
      "##üz": 1037,
      "##ım": 1038,
      "##az": 1039,
      "##lik": 1040,
      "##te": 1041,
      "##ab": 1042,
      "##iler": 1043,
      "ge": 1044,
      "##iye": 1045,
      "kar": 1046,
      "için": 1047,
      "##ını": 1048,
      "gör": 1049,
      "##dir": 1050,
      "ile": 1051,
      "##üm": 1052,
      "et": 1053,
      "##ca": 1054,
      "##ev": 1055,
      "son": 1056,
      "##uş": 1057,
      "##mak": 1058,
      "##lık": 1059,
      "##ği": 1060,
      "il": 1061,
      "##uz": 1062,
      "##iyor": 1063,
      "##oğ": 1064,
      "##cak": 1065,
      "##dır": 1066,
      "##ına": 1067,
      "kon": 1068,
      "##ut": 1069,
      "ay": 1070,
      "ön": 1071,
      "##lu": 1072,
      "ver": 1073,
      "bil": 1074,
      "ger": 1075,
      "##ara": 1076,
      "##ön": 1077,
      "##len": 1078,
      "##ha": 1079,
      "##mek": 1080,
      "oldu": 1081,
      "##bil": 1082,
      "en": 1083,
      "iş": 1084,
      "ed": 1085,
      "##anı": 1086,
      "##ah": 1087,
      "##üş": 1088,
      "##tir": 1089,
      "##cı": 1090,
      "ist": 1091,
      "##inin": 1092,
      "##ec": 1093,
      "##larak": 1094,
      "kur": 1095,
      "##uk": 1096,
      "##şı": 1097,
      "##alı": 1098,
      "tür": 1099,
      "##tır": 1100,
      "ne": 1101,
      "##se": 1102,
      "##ından": 1103,
      "##ro": 1104,
      "##us": 1105,
      "yer": 1106,
      "##ez": 1107,
      "##ki": 1108,
      "##ması": 1109,
      "or": 1110,
      "##unu": 1111,
      "gün": 1112,
      "değ": 1113,
      "##lay": 1114,
      "olarak": 1115,
      "##ül": 1116,
      "##man": 1117,
      "ta": 1118,
      "20": 1119,
      "##ib": 1120,
      "yıl": 1121,
      "te": 1122,
      "aç": 1123,
      "bul": 1124,
      "bü": 1125,
      "ko": 1126,
      "##öy": 1127,
      "##lama": 1128,
      "kad": 1129,
      "##mış": 1130,
      "çok": 1131,
      "##laş": 1132,
      "ha": 1133,
      "##aki": 1134,
      "gel": 1135,
      "türk": 1136,
      "##op": 1137,
      "##sa": 1138,
      "ak": 1139,
      "##ası": 1140,
      "her": 1141,
      "olan": 1142,
      "##miş": 1143,
      "sür": 1144,
      "##tan": 1145,
      "on": 1146,
      "başk": 1147,
      "geç": 1148,
      "##imiz": 1149,
      "##ının": 1150,
      "ma": 1151,
      "ken": 1152,
      "daha": 1153,
      "##ili": 1154,
      "ara": 1155,
      "olduğ": 1156,
      "##yon": 1157,
      "öz": 1158,
      "##eki": 1159,
      "çalı": 1160,
      "be": 1161,
      "##ör": 1162,
      "bel": 1163,
      "##eni": 1164,
      "çık": 1165,
      "##arı": 1166,
      "kul": 1167,
      "##zer": 1168,
      "mü": 1169,
      "yaş": 1170,
      "##ci": 1171,
      "##yla": 1172,
      "kay": 1173,
      "var": 1174,
      "dev": 1175,
      "uy": 1176,
      "##ibi": 1177,
      "çalış": 1178,
      "##ken": 1179,
      "se": 1180,
      "##iniz": 1181,
      "pro": 1182,
      "büy": 1183,
      "##ip": 1184,
      "er": 1185,
      "##eye": 1186,
      "##let": 1187,
      "yapı": 1188,
      "##eh": 1189,
      "##mas": 1190,
      "##dığı": 1191,
      "top": 1192,
      "##lü": 1193,
      "##os": 1194,
      "##ret": 1195,
      "tek": 1196,
      "gen": 1197,
      "yön": 1198,
      "##leş": 1199,
      "kullan": 1200,
      "yan": 1201,
      "üzer": 1202,
      "##fa": 1203,
      "yar": 1204,
      "##öyle": 1205,
      "bak": 1206,
      "##met": 1207,
      "##larını": 1208,
      "tar": 1209,
      "##ih": 1210,
      "##ilen": 1211,
      "bulun": 1212,
      "gibi": 1213,
      "##aman": 1214,
      "sağ": 1215,
      "##va": 1216,
      "##ist": 1217,
      "##ed": 1218,
      "par": 1219,
      "##ka": 1220,
      "##ru": 1221,
      "##san": 1222,
      "##iyle": 1223,
      "201": 1224,
      "##lara": 1225,
      "say": 1226,
      "##daki": 1227,
      "mil": 1228,
      "##unda": 1229,
      "doğ": 1230,
      "##aya": 1231,
      "ama": 1232,
      "##mız": 1233,
      "##lerini": 1234,
      "##ecek": 1235,
      "den": 1236,
      "gü": 1237,
      "dur": 1238,
      "##si": 1239,
      "ben": 1240,
      "büyük": 1241,
      "##ter": 1242,
      "kap": 1243,
      "##isi": 1244,
      "##bilir": 1245,
      "kal": 1246,
      "##id": 1247,
      "düş": 1248,
      "oy": 1249,
      "hay": 1250,
      "gerek": 1251,
      "##cu": 1252,
      "sor": 1253,
      "ek": 1254,
      "bo": 1255,
      "ev": 1256,
      "tara": 1257,
      "##ers": 1258,
      "##uşt": 1259,
      "##ildi": 1260,
      "kı": 1261,
      "olma": 1262,
      "sonra": 1263,
      "##ap": 1264,
      "##re": 1265,
      "yaz": 1266,
      "dön": 1267,
      "##asında": 1268,
      "##ğini": 1269,
      "biz": 1270,
      "##mesi": 1271,
      "kadar": 1272,
      "##öl": 1273,
      "karşı": 1274,
      "##men": 1275,
      "türkiye": 1276,
      "bun": 1277,
      "taraf": 1278,
      "öğ": 1279,
      "yak": 1280,
      "##öz": 1281,
      "##ğını": 1282,
      "##inden": 1283,
      "yeni": 1284,
      "hak": 1285,
      "zaman": 1286,
      "##liş": 1287,
      "##ic": 1288,
      "##om": 1289,
      "##ren": 1290,
      "belir": 1291,
      "es": 1292,
      "##ba": 1293,
      "yüz": 1294,
      "##dür": 1295,
      "ola": 1296,
      "mu": 1297,
      "açık": 1298,
      "eğ": 1299,
      "ın": 1300,
      "##gi": 1301,
      "##lem": 1302,
      "alan": 1303,
      "sah": 1304,
      "is": 1305,
      "##eş": 1306,
      "##uy": 1307,
      "do": 1308,
      "##çek": 1309,
      "##ark": 1310,
      "##maya": 1311,
      "böl": 1312,
      "nin": 1313,
      "##gu": 1314,
      "as": 1315,
      "##arak": 1316,
      "##ten": 1317,
      "ise": 1318,
      "mer": 1319,
      "##ece": 1320,
      "tem": 1321,
      "hal": 1322,
      "san": 1323,
      "##deki": 1324,
      "ilk": 1325,
      "##dım": 1326,
      "##ede": 1327,
      "el": 1328,
      "##eri": 1329,
      "##iyet": 1330,
      "##lığı": 1331,
      "##larda": 1332,
      "uz": 1333,
      "##lere": 1334,
      "özel": 1335,
      "has": 1336,
      "##ot": 1337,
      "düz": 1338,
      "##bul": 1339,
      "##erek": 1340,
      "yol": 1341,
      "##ran": 1342,
      "dün": 1343,
      "şek": 1344,
      "##ley": 1345,
      "der": 1346,
      "bur": 1347,
      "kiş": 1348,
      "gir": 1349,
      "##rı": 1350,
      "##iç": 1351,
      "##led": 1352,
      "##ladı": 1353,
      "##lam": 1354,
      "##tü": 1355,
      "iz": 1356,
      "##esinde": 1357,
      "##kin": 1358,
      "bin": 1359,
      "##ram": 1360,
      "sev": 1361,
      "ot": 1362,
      "ok": 1363,
      "##aber": 1364,
      "##iv": 1365,
      "gerçek": 1366,
      "##eli": 1367,
      "##if": 1368,
      "##diği": 1369,
      "iy": 1370,
      "su": 1371,
      "ser": 1372,
      "insan": 1373,
      "##larının": 1374,
      "##ılı": 1375,
      "##dü": 1376,
      "##lat": 1377,
      "##00": 1378,
      "ilg": 1379,
      "##imi": 1380,
      "alt": 1381,
      "yük": 1382,
      "har": 1383,
      "hem": 1384,
      "sı": 1385,
      "tak": 1386,
      "##ğu": 1387,
      "at": 1388,
      "##est": 1389,
      "##dik": 1390,
      "göre": 1391,
      "yaptı": 1392,
      "po": 1393,
      "beled": 1394,
      "önem": 1395,
      "kaz": 1396,
      "##ıyor": 1397,
      "##por": 1398,
      "ço": 1399,
      "##yan": 1400,
      "##be": 1401,
      "##ge": 1402,
      "tarafından": 1403,
      "kendi": 1404,
      "ül": 1405,
      "ad": 1406,
      "##larına": 1407,
      "etti": 1408,
      "##tik": 1409,
      "ada": 1410,
      "ter": 1411,
      "##ınız": 1412,
      "##liy": 1413,
      "##çe": 1414,
      "ün": 1415,
      "kan": 1416,
      "göz": 1417,
      "un": 1418,
      "##lerinin": 1419,
      "##ster": 1420,
      "di": 1421,
      "tarih": 1422,
      "siz": 1423,
      "söz": 1424,
      "şey": 1425,
      "##lerde": 1426,
      "##yı": 1427,
      "##ile": 1428,
      "##abil": 1429,
      "##aret": 1430,
      "haz": 1431,
      "önce": 1432,
      "ab": 1433,
      "##sel": 1434,
      "##tr": 1435,
      "##daş": 1436,
      "söyle": 1437,
      "19": 1438,
      "##ıs": 1439,
      "get": 1440,
      "##mes": 1441,
      "değil": 1442,
      "iyi": 1443,
      "##lah": 1444,
      "##una": 1445,
      "seç": 1446,
      "ih": 1447,
      "devam": 1448,
      "tüm": 1449,
      "neden": 1450,
      "##larında": 1451,
      "##lerine": 1452,
      "yet": 1453,
      "öğren": 1454,
      "##bir": 1455,
      "olduğu": 1456,
      "göster": 1457,
      "##uştur": 1458,
      "yönet": 1459,
      "##maz": 1460,
      "ort": 1461,
      "getir": 1462,
      "ülk": 1463,
      "##leştir": 1464,
      "çalışma": 1465,
      "çek": 1466,
      "av": 1467,
      "##uyor": 1468,
      "kor": 1469,
      "##sun": 1470,
      "##şa": 1471,
      "yok": 1472,
      "olduğunu": 1473,
      "nın": 1474,
      "genel": 1475,
      "##liği": 1476,
      "durum": 1477,
      "##ünü": 1478,
      "başkanı": 1479,
      "##art": 1480,
      "##sız": 1481,
      "##ne": 1482,
      "dedi": 1483,
      "haber": 1484,
      "tan": 1485,
      "hiz": 1486,
      "mah": 1487,
      "##han": 1488,
      "##atı": 1489,
      "fark": 1490,
      "ki": 1491,
      "##ven": 1492,
      "##der": 1493,
      "##tür": 1494,
      "düzen": 1495,
      "eğit": 1496,
      "##asyon": 1497,
      "veya": 1498,
      "iki": 1499,
      "##makta": 1500,
      "mo": 1501,
      "hizmet": 1502,
      "ilgili": 1503,
      "kurul": 1504,
      "th": 1505,
      "##cuk": 1506,
      "edil": 1507,
      "alın": 1508,
      "##tar": 1509,
      "##üs": 1510,
      "##dık": 1511,
      "##mekte": 1512,
      "##ça": 1513,
      "##ehir": 1514,
      "##tık": 1515,
      "##kez": 1516,
      "şekil": 1517,
      "##anbul": 1518,
      "##ada": 1519,
      "birlik": 1520,
      "bilg": 1521,
      "##ye": 1522,
      "bas": 1523,
      "##unun": 1524,
      "az": 1525,
      "diye": 1526,
      "başkan": 1527,
      "tut": 1528,
      "##ileri": 1529,
      "önemli": 1530,
      "sen": 1531,
      "hat": 1532,
      "merkez": 1533,
      "mes": 1534,
      "hiç": 1535,
      "dış": 1536,
      "değer": 1537,
      "##diğ": 1538,
      "istanbul": 1539,
      "##raf": 1540,
      "çocuk": 1541,
      "bek": 1542,
      "yay": 1543,
      "bay": 1544,
      "kö": 1545,
      "##ep": 1546,
      "##lığ": 1547,
      "alı": 1548,
      "bağ": 1549,
      "sonu": 1550,
      "ayn": 1551,
      "##eyi": 1552,
      "##up": 1553,
      "ban": 1554,
      "duy": 1555,
      "gelen": 1556,
      "kam": 1557,
      "##dur": 1558,
      "##ad": 1559,
      "ör": 1560,
      "##mir": 1561,
      "değiş": 1562,
      "##meye": 1563,
      "##siniz": 1564,
      "yapılan": 1565,
      "şu": 1566,
      "uygu": 1567,
      "##lek": 1568,
      "##ındaki": 1569,
      "##lim": 1570,
      "katı": 1571,
      "##lerinde": 1572,
      "geliş": 1573,
      "öl": 1574,
      "##ğer": 1575,
      "ede": 1576,
      "kend": 1577,
      "##leme": 1578,
      "im": 1579,
      "10": 1580,
      "tes": 1581,
      "##dar": 1582,
      "hayat": 1583,
      "şekilde": 1584,
      "##cek": 1585,
      "##lardan": 1586,
      "##şk": 1587,
      "güven": 1588,
      "##ıldı": 1589,
      "##siz": 1590,
      "eğitim": 1591,
      "##usu": 1592,
      "##larımız": 1593,
      "##tör": 1594,
      "hakk": 1595,
      "##ımız": 1596,
      "kim": 1597,
      "sat": 1598,
      "güz": 1599,
      "saat": 1600,
      "##acak": 1601,
      "arasında": 1602,
      "##ağ": 1603,
      "##eme": 1604,
      "tur": 1605,
      "##liğ": 1606,
      "##gün": 1607,
      "##olo": 1608,
      "içinde": 1609,
      "##ıp": 1610,
      "##fade": 1611,
      "##lendir": 1612,
      "kadın": 1613,
      "em": 1614,
      "##ig": 1615,
      "##üt": 1616,
      "gaz": 1617,
      "aynı": 1618,
      "##larla": 1619,
      "##likle": 1620,
      "kes": 1621,
      "eden": 1622,
      "##sal": 1623,
      "##üp": 1624,
      "oyun": 1625,
      "hazır": 1626,
      "ifade": 1627,
      "sahip": 1628,
      "görev": 1629,
      "##ünde": 1630,
      "birlikte": 1631,
      "ediyor": 1632,
      "cum": 1633,
      "##lacak": 1634,
      "diğer": 1635,
      "baz": 1636,
      "##mam": 1637,
      "ayrı": 1638,
      "dönem": 1639,
      "##enin": 1640,
      "fa": 1641,
      "zor": 1642,
      "faz": 1643,
      "##lis": 1644,
      "eş": 1645,
      "üret": 1646,
      "##hur": 1647,
      "##na": 1648,
      "##maktadır": 1649,
      "##mektedir": 1650,
      "tekn": 1651,
      "güzel": 1652,
      "dan": 1653,
      "haf": 1654,
      "ancak": 1655,
      "konu": 1656,
      "15": 1657,
      "üst": 1658,
      "##ilik": 1659,
      "ür": 1660,
      "dik": 1661,
      "kat": 1662,
      "##rup": 1663,
      "##sek": 1664,
      "müdür": 1665,
      "yardım": 1666,
      "eki": 1667,
      "sal": 1668,
      "##atan": 1669,
      "sist": 1670,
      "belediye": 1671,
      "##elik": 1672,
      "##landı": 1673,
      "##iyat": 1674,
      "fazla": 1675,
      "##det": 1676,
      "büt": 1677,
      "bey": 1678,
      "##ayı": 1679,
      "ye": 1680,
      "içer": 1681,
      "tab": 1682,
      "##lanan": 1683,
      "##ing": 1684,
      "kazan": 1685,
      "##bet": 1686,
      "so": 1687,
      "proj": 1688,
      "##ban": 1689,
      "##emiz": 1690,
      "##ğü": 1691,
      "iliş": 1692,
      "cumhur": 1693,
      "##ket": 1694,
      "##ika": 1695,
      "##cağı": 1696,
      "##oloj": 1697,
      "##oğlu": 1698,
      "##cü": 1699,
      "dünya": 1700,
      "##´n": 1701,
      "sistem": 1702,
      "can": 1703,
      "##ide": 1704,
      "##layan": 1705,
      "karar": 1706,
      "etk": 1707,
      "düşün": 1708,
      "##fer": 1709,
      "##van": 1710,
      "ağ": 1711,
      "böyle": 1712,
      "##ilerin": 1713,
      "kom": 1714,
      "##lerle": 1715,
      "##gram": 1716,
      "##olu": 1717,
      "kız": 1718,
      "doğru": 1719,
      "kü": 1720,
      "arka": 1721,
      "##eyen": 1722,
      "bulunan": 1723,
      "##laya": 1724,
      "çev": 1725,
      "olmak": 1726,
      "ik": 1727,
      "##gı": 1728,
      "olay": 1729,
      "muh": 1730,
      "boy": 1731,
      "olur": 1732,
      "##üne": 1733,
      "##ch": 1734,
      "vatan": 1735,
      "sade": 1736,
      "##ali": 1737,
      "yüksek": 1738,
      "ard": 1739,
      "##ivers": 1740,
      "nas": 1741,
      "ku": 1742,
      "##rak": 1743,
      "ulaş": 1744,
      "the": 1745,
      "açıklama": 1746,
      "##indeki": 1747,
      "##lerden": 1748,
      "man": 1749,
      "##iversit": 1750,
      "sit": 1751,
      "orta": 1752,
      "##kü": 1753,
      "##lak": 1754,
      "devlet": 1755,
      "abd": 1756,
      "çıkar": 1757,
      "sek": 1758,
      "kır": 1759,
      "##uştu": 1760,
      "konuş": 1761,
      "sıra": 1762,
      "##iyas": 1763,
      "yüzde": 1764,
      "##mi": 1765,
      "##ısı": 1766,
      "re": 1767,
      "##lerinden": 1768,
      "##mıştır": 1769,
      "üniversit": 1770,
      "##ımı": 1771,
      "olacak": 1772,
      "yür": 1773,
      "##ira": 1774,
      "dest": 1775,
      "##iyon": 1776,
      "bulundu": 1777,
      "##gun": 1778,
      "gön": 1779,
      "kit": 1780,
      "bugün": 1781,
      "süre": 1782,
      "bölg": 1783,
      "##lo": 1784,
      "sadece": 1785,
      "genç": 1786,
      "##tığı": 1787,
      "mak": 1788,
      "git": 1789,
      "bah": 1790,
      "ardından": 1791,
      "##cağ": 1792,
      "güç": 1793,
      "mar": 1794,
      "met": 1795,
      "bır": 1796,
      "res": 1797,
      "bakan": 1798,
      "##lerimiz": 1799,
      "##larından": 1800,
      "##sam": 1801,
      "##osy": 1802,
      "görün": 1803,
      "mut": 1804,
      "am": 1805,
      "bütün": 1806,
      "ürün": 1807,
      "destek": 1808,
      "harek": 1809,
      "sağlık": 1810,
      "farklı": 1811,
      "##üyor": 1812,
      "hava": 1813,
      "##liyor": 1814,
      "belirt": 1815,
      "##kat": 1816,
      "##ayan": 1817,
      "bunun": 1818,
      "üzerine": 1819,
      "sık": 1820,
      "##lıyor": 1821,
      "program": 1822,
      "bit": 1823,
      "##muş": 1824,
      "ilç": 1825,
      "##ans": 1826,
      "##masını": 1827,
      "##luk": 1828,
      "##gan": 1829,
      "##ıcı": 1830,
      "fak": 1831,
      "##esine": 1832,
      "##eti": 1833,
      "12": 1834,
      "##iyorum": 1835,
      "mad": 1836,
      "gerçekleştir": 1837,
      "bırak": 1838,
      "spor": 1839,
      "##miştir": 1840,
      "##iya": 1841,
      "pay": 1842,
      "bazı": 1843,
      "##kı": 1844,
      "##ri": 1845,
      "##abilir": 1846,
      "##lenen": 1847,
      "geçir": 1848,
      "kaç": 1849,
      "fil": 1850,
      "##kan": 1851,
      "yaptığı": 1852,
      "##lantı": 1853,
      "na": 1854,
      "nasıl": 1855,
      "##sta": 1856,
      "başka": 1857,
      "##asar": 1858,
      "görüş": 1859,
      "##mı": 1860,
      "##çı": 1861,
      "ber": 1862,
      "üç": 1863,
      "##dim": 1864,
      "milyon": 1865,
      "dikkat": 1866,
      "ekip": 1867,
      "##isinde": 1868,
      "11": 1869,
      "tele": 1870,
      "2019": 1871,
      "üzere": 1872,
      "##masına": 1873,
      "yapıl": 1874,
      "han": 1875,
      "uzun": 1876,
      "hep": 1877,
      "bar": 1878,
      "dav": 1879,
      "##tal": 1880,
      "##dığını": 1881,
      "bölüm": 1882,
      "millet": 1883,
      "kayn": 1884,
      "ulu": 1885,
      "##mal": 1886,
      "fir": 1887,
      "din": 1888,
      "##ulu": 1889,
      "##eb": 1890,
      "kişi": 1891,
      "##usunda": 1892,
      "sun": 1893,
      "##bar": 1894,
      "iste": 1895,
      "for": 1896,
      "mey": 1897,
      "ch": 1898,
      "##mem": 1899,
      "başarı": 1900,
      "mev": 1901,
      "işlem": 1902,
      "teş": 1903,
      "tah": 1904,
      "ah": 1905,
      "##ğır": 1906,
      "sosy": 1907,
      "hasta": 1908,
      "##ver": 1909,
      "vatandaş": 1910,
      "##mez": 1911,
      "yayın": 1912,
      "ülke": 1913,
      "tamam": 1914,
      "##tu": 1915,
      "##mıştı": 1916,
      "##bol": 1917,
      "kurum": 1918,
      "to": 1919,
      "gid": 1920,
      "ziy": 1921,
      "şir": 1922,
      "gele": 1923,
      "hız": 1924,
      "şeh": 1925,
      "##per": 1926,
      "##doğ": 1927,
      "yaklaş": 1928,
      "##onom": 1929,
      "##af": 1930,
      "belediy": 1931,
      "bile": 1932,
      "geldi": 1933,
      "##tırma": 1934,
      "öğrenc": 1935,
      "##çi": 1936,
      "200": 1937,
      "ey": 1938,
      "##kara": 1939,
      "##ılan": 1940,
      "id": 1941,
      "hakkında": 1942,
      "üzerinde": 1943,
      "olması": 1944,
      "oluştur": 1945,
      "halk": 1946,
      "##eceğ": 1947,
      "##lük": 1948,
      "##uma": 1949,
      "rah": 1950,
      "##net": 1951,
      "##manın": 1952,
      "##las": 1953,
      "kül": 1954,
      "olduk": 1955,
      "dil": 1956,
      "ziyaret": 1957,
      "ho": 1958,
      "kapsam": 1959,
      "başladı": 1960,
      "plan": 1961,
      "benim": 1962,
      "hareket": 1963,
      "geçen": 1964,
      "deniz": 1965,
      "sosyal": 1966,
      "##bi": 1967,
      "kr": 1968,
      "##liyet": 1969,
      "##gil": 1970,
      "sır": 1971,
      "##işim": 1972,
      "şim": 1973,
      "biri": 1974,
      "##ve": 1975,
      "dir": 1976,
      "##ümüz": 1977,
      "öğret": 1978,
      "##bilirsiniz": 1979,
      "yönetim": 1980,
      "##vaş": 1981,
      "tam": 1982,
      "hük": 1983,
      "of": 1984,
      "yor": 1985,
      "iht": 1986,
      "yılında": 1987,
      "##dem": 1988,
      "sonr": 1989,
      "anla": 1990,
      "cez": 1991,
      "seçim": 1992,
      "ses": 1993,
      "yakın": 1994,
      "arkadaş": 1995,
      "araç": 1996,
      "küç": 1997,
      "ro": 1998,
      "##za": 1999,
      "vur": 2000,
      "##bah": 2001,
      "##muz": 2002,
      "##malı": 2003,
      "mahal": 2004,
      "günü": 2005,
      "##lum": 2006,
      "şirket": 2007,
      "söyledi": 2008,
      "kav": 2009,
      "para": 2010,
      "dolay": 2011,
      "##for": 2012,
      "ortaya": 2013,
      "kaynak": 2014,
      "##yle": 2015,
      "önc": 2016,
      "##iyoruz": 2017,
      "nok": 2018,
      "##fon": 2019,
      "mi": 2020,
      "diy": 2021,
      "eder": 2022,
      "sak": 2023,
      "uygulama": 2024,
      "ayrıca": 2025,
      "onun": 2026,
      "##mayı": 2027,
      "taş": 2028,
      "burada": 2029,
      "yara": 2030,
      "##urt": 2031,
      "bunu": 2032,
      "sorun": 2033,
      "##pr": 2034,
      "yaşam": 2035,
      "##umuz": 2036,
      "ekonom": 2037,
      "taşı": 2038,
      "18": 2039,
      "yapan": 2040,
      "mal": 2041,
      "dok": 2042,
      "maç": 2043,
      "30": 2044,
      "##rar": 2045,
      "bor": 2046,
      "hiçbir": 2047,
      "##ber": 2048,
      "ankara": 2049,
      "sur": 2050,
      "oda": 2051,
      "##anın": 2052,
      "##sin": 2053,
      "parti": 2054,
      "yerine": 2055,
      "uygun": 2056,
      "eski": 2057,
      "dr": 2058,
      "##şehir": 2059,
      "hastan": 2060,
      "kabul": 2061,
      "per": 2062,
      "kil": 2063,
      "takım": 2064,
      "çöz": 2065,
      "fiyat": 2066,
      "paz": 2067,
      "araş": 2068,
      "bizim": 2069,
      "sav": 2070,
      "müca": 2071,
      "gönder": 2072,
      "yatır": 2073,
      "çün": 2074,
      "mem": 2075,
      "si": 2076,
      "##ıt": 2077,
      "yine": 2078,
      "anlam": 2079,
      "tat": 2080,
      "avrup": 2081,
      "sonuç": 2082,
      "edildi": 2083,
      "du": 2084,
      "çünkü": 2085,
      "##asına": 2086,
      "yen": 2087,
      "it": 2088,
      "veril": 2089,
      "artık": 2090,
      "küçük": 2091,
      "mücade": 2092,
      "madde": 2093,
      "ikin": 2094,
      "kültür": 2095,
      "##esinin": 2096,
      "nde": 2097,
      "hede": 2098,
      "kendis": 2099,
      "hedef": 2100,
      "çar": 2101,
      "koy": 2102,
      "##ici": 2103,
      "oluş": 2104,
      "köy": 2105,
      "edilen": 2106,
      "değerlendir": 2107,
      "##gel": 2108,
      "sar": 2109,
      "##diğini": 2110,
      "ihtiya": 2111,
      "kez": 2112,
      "ince": 2113,
      "çeş": 2114,
      "müz": 2115,
      "st": 2116,
      "ask": 2117,
      "##dana": 2118,
      "başla": 2119,
      "##lesi": 2120,
      "kısa": 2121,
      "gazet": 2122,
      "tic": 2123,
      "mas": 2124,
      "hafta": 2125,
      "allah": 2126,
      "tanı": 2127,
      "aşa": 2128,
      "yanı": 2129,
      "ac": 2130,
      "##ünün": 2131,
      "##ğin": 2132,
      "##esini": 2133,
      "ren": 2134,
      "özellikle": 2135,
      "telefon": 2136,
      "##tif": 2137,
      "sanat": 2138,
      "temmuz": 2139,
      "bilgi": 2140,
      "birç": 2141,
      "14": 2142,
      "avrupa": 2143,
      "13": 2144,
      "kontr": 2145,
      "yaşa": 2146,
      "##tış": 2147,
      "bilin": 2148,
      "##landır": 2149,
      "yaşan": 2150,
      "##ilere": 2151,
      "milli": 2152,
      "siyas": 2153,
      "##ere": 2154,
      "yardımcı": 2155,
      "##suz": 2156,
      "tl": 2157,
      "fır": 2158,
      "herk": 2159,
      "16": 2160,
      "sez": 2161,
      "terör": 2162,
      "art": 2163,
      "sey": 2164,
      "##lüğü": 2165,
      "hes": 2166,
      "his": 2167,
      "dak": 2168,
      "##doğan": 2169,
      "adam": 2170,
      "##mişti": 2171,
      "hüküm": 2172,
      "tasar": 2173,
      "paylaş": 2174,
      "##dum": 2175,
      "erk": 2176,
      "yem": 2177,
      "##ga": 2178,
      "##oğun": 2179,
      "af": 2180,
      "ağır": 2181,
      "birçok": 2182,
      "toplantı": 2183,
      "örg": 2184,
      "toplum": 2185,
      "##ort": 2186,
      "##şıyor": 2187,
      "##oğraf": 2188,
      "konuştu": 2189,
      "##sında": 2190,
      "##larıyla": 2191,
      "katıl": 2192,
      "25": 2193,
      "kontrol": 2194,
      "men": 2195,
      "bağlı": 2196,
      "2018": 2197,
      "film": 2198,
      "##gin": 2199,
      "prof": 2200,
      "part": 2201,
      "tr": 2202,
      "etmek": 2203,
      "konusunda": 2204,
      "##lamak": 2205,
      "okul": 2206,
      "##akip": 2207,
      "os": 2208,
      "şimdi": 2209,
      "##başk": 2210,
      "üye": 2211,
      "##vur": 2212,
      "nun": 2213,
      "polis": 2214,
      "uğ": 2215,
      "bayram": 2216,
      "17": 2217,
      "suç": 2218,
      "##vi": 2219,
      "##cağını": 2220,
      "##del": 2221,
      "uç": 2222,
      "beş": 2223,
      "##tiğ": 2224,
      "##ılması": 2225,
      "##cel": 2226,
      "##tin": 2227,
      "meh": 2228,
      "##ıda": 2229,
      "##gın": 2230,
      "mek": 2231,
      "proje": 2232,
      "##ınır": 2233,
      "##izi": 2234,
      "sok": 2235,
      "##bak": 2236,
      "##bu": 2237,
      "kolay": 2238,
      "yatırım": 2239,
      "etkin": 2240,
      "ikinci": 2241,
      "cumhurbaşk": 2242,
      "##madan": 2243,
      "##ince": 2244,
      "onu": 2245,
      "ke": 2246,
      "bildir": 2247,
      "##arası": 2248,
      "kah": 2249,
      "kaldır": 2250,
      "isim": 2251,
      "sektör": 2252,
      "rek": 2253,
      "içerisinde": 2254,
      "kara": 2255,
      "##ebil": 2256,
      "rahat": 2257,
      "iti": 2258,
      "oto": 2259,
      "aldı": 2260,
      "dair": 2261,
      "gelir": 2262,
      "şah": 2263,
      "merkezi": 2264,
      "pek": 2265,
      "altında": 2266,
      "hemen": 2267,
      "yani": 2268,
      "and": 2269,
      "cam": 2270,
      "çeşit": 2271,
      "##dın": 2272,
      "kut": 2273,
      "##siyon": 2274,
      "mec": 2275,
      "##mesini": 2276,
      "erdoğan": 2277,
      "pa": 2278,
      "fot": 2279,
      "belediyesi": 2280,
      "başvur": 2281,
      "##taş": 2282,
      "herkes": 2283,
      "med": 2284,
      "##tım": 2285,
      "sebe": 2286,
      "00": 2287,
      "##uluk": 2288,
      "nedeniyle": 2289,
      "oyn": 2290,
      "##sil": 2291,
      "##duğu": 2292,
      "tale": 2293,
      "##maları": 2294,
      "poli": 2295,
      "##su": 2296,
      "##unca": 2297,
      "##unuz": 2298,
      "geri": 2299,
      "üniversitesi": 2300,
      "##tıl": 2301,
      "cev": 2302,
      "teknoloj": 2303,
      "kurulu": 2304,
      "##ceğ": 2305,
      "##cağız": 2306,
      "çalışan": 2307,
      "fut": 2308,
      "ait": 2309,
      "kol": 2310,
      "dar": 2311,
      "iddi": 2312,
      "##leriyle": 2313,
      "saldır": 2314,
      "dönüş": 2315,
      "mı": 2316,
      "##tiği": 2317,
      "##asını": 2318,
      "yal": 2319,
      "##pan": 2320,
      "##cret": 2321,
      "ilişk": 2322,
      "vak": 2323,
      "##ıntı": 2324,
      "satış": 2325,
      "ayr": 2326,
      "teknik": 2327,
      "##ilmesi": 2328,
      "##leyen": 2329,
      "kıs": 2330,
      "ilçe": 2331,
      "##can": 2332,
      "şehir": 2333,
      "##ekk": 2334,
      "ali": 2335,
      "##umlu": 2336,
      "sınır": 2337,
      "##ize": 2338,
      "##pe": 2339,
      "ele": 2340,
      "ücret": 2341,
      "kapsamında": 2342,
      "aş": 2343,
      "yönelik": 2344,
      "##lım": 2345,
      "ulus": 2346,
      "##min": 2347,
      "inter": 2348,
      "bana": 2349,
      "##dak": 2350,
      "##deş": 2351,
      "pazar": 2352,
      "sürdür": 2353,
      "##nek": 2354,
      "##tur": 2355,
      "kitap": 2356,
      "engel": 2357,
      "geliştir": 2358,
      "me": 2359,
      "dem": 2360,
      "nda": 2361,
      "##ayet": 2362,
      "##üc": 2363,
      "bağı": 2364,
      "zar": 2365,
      "teda": 2366,
      "yeniden": 2367,
      "##müş": 2368,
      "elek": 2369,
      "mücadele": 2370,
      "çıktı": 2371,
      "bölge": 2372,
      "boz": 2373,
      "izmir": 2374,
      "olsun": 2375,
      "##iyordu": 2376,
      "##ğa": 2377,
      "la": 2378,
      "erkek": 2379,
      "inan": 2380,
      "savaş": 2381,
      "rus": 2382,
      "sezon": 2383,
      "##din": 2384,
      "##lif": 2385,
      "ala": 2386,
      "verdi": 2387,
      "##tem": 2388,
      "##aj": 2389,
      "gece": 2390,
      "beraber": 2391,
      "##ent": 2392,
      "ingil": 2393,
      "fin": 2394,
      "çıkan": 2395,
      "güvenlik": 2396,
      "indir": 2397,
      "oper": 2398,
      "aile": 2399,
      "##aba": 2400,
      "grup": 2401,
      "yaklaşık": 2402,
      "yaka": 2403,
      "##var": 2404,
      "##oy": 2405,
      "futbol": 2406,
      "müş": 2407,
      "faa": 2408,
      "adı": 2409,
      "gül": 2410,
      "ilişkin": 2411,
      "##og": 2412,
      "##alt": 2413,
      "##eceği": 2414,
      "cumhuriyet": 2415,
      "temiz": 2416,
      "mehmet": 2417,
      "pat": 2418,
      "dö": 2419,
      "kali": 2420,
      "anlaş": 2421,
      "öde": 2422,
      "kork": 2423,
      "otur": 2424,
      "##res": 2425,
      "osman": 2426,
      "fakat": 2427,
      "##meden": 2428,
      "##tor": 2429,
      "ortak": 2430,
      "24": 2431,
      "##undan": 2432,
      "ıs": 2433,
      "araştırma": 2434,
      "söy": 2435,
      "dah": 2436,
      "##duğ": 2437,
      "uzak": 2438,
      "oran": 2439,
      "##omo": 2440,
      "eğer": 2441,
      "ga": 2442,
      "##sik": 2443,
      "büyükşehir": 2444,
      "##meli": 2445,
      "bilim": 2446,
      "##uyu": 2447,
      "##cih": 2448,
      "organ": 2449,
      "serv": 2450,
      "tarihi": 2451,
      "##abı": 2452,
      "##amp": 2453,
      "##sım": 2454,
      "##lır": 2455,
      "hey": 2456,
      "yorum": 2457,
      "faaliyet": 2458,
      "çağ": 2459,
      "mahk": 2460,
      "tav": 2461,
      "tercih": 2462,
      "lis": 2463,
      "##kün": 2464,
      "des": 2465,
      "##asının": 2466,
      "toplam": 2467,
      "ceza": 2468,
      "##mesine": 2469,
      "elektr": 2470,
      "koş": 2471,
      "kamu": 2472,
      "##ser": 2473,
      "vardır": 2474,
      "kuru": 2475,
      "##hale": 2476,
      "veren": 2477,
      "fotoğraf": 2478,
      "##masının": 2479,
      "com": 2480,
      "##yen": 2481,
      "hayvan": 2482,
      "100": 2483,
      "##iyi": 2484,
      "ça": 2485,
      "##ke": 2486,
      "takip": 2487,
      "tük": 2488,
      "aday": 2489,
      "tekrar": 2490,
      "yağ": 2491,
      "kardeş": 2492,
      "uluslar": 2493,
      "##ime": 2494,
      "ticaret": 2495,
      "internet": 2496,
      "##ilir": 2497,
      "##meyi": 2498,
      "sin": 2499,
      "kür": 2500,
      "yürü": 2501,
      "birbir": 2502,
      "ap": 2503,
      "##üb": 2504,
      "soru": 2505,
      "yo": 2506,
      "teh": 2507,
      "yoğun": 2508,
      "biraz": 2509,
      "##sak": 2510,
      "##lüğ": 2511,
      "düny": 2512,
      "itibar": 2513,
      "ru": 2514,
      "##yorum": 2515,
      "##rat": 2516,
      "ip": 2517,
      "##ünden": 2518,
      "mez": 2519,
      "##may": 2520,
      "##madı": 2521,
      "yarış": 2522,
      "teşekk": 2523,
      "çif": 2524,
      "##üsü": 2525,
      "müm": 2526,
      "##ener": 2527,
      "50": 2528,
      "alman": 2529,
      "pu": 2530,
      "ham": 2531,
      "karşılaş": 2532,
      "temel": 2533,
      "huk": 2534,
      "##ck": 2535,
      "##imizin": 2536,
      "değişik": 2537,
      "##ân": 2538,
      "##yanın": 2539,
      "##tim": 2540,
      "um": 2541,
      "demir": 2542,
      "oğ": 2543,
      "şöyle": 2544,
      "görüntü": 2545,
      "##tiğini": 2546,
      "hukuk": 2547,
      "zamanda": 2548,
      "müdürlüğü": 2549,
      "##ebilir": 2550,
      "##stan": 2551,
      "##fen": 2552,
      "rağ": 2553,
      "teşekkür": 2554,
      "##erj": 2555,
      "##teş": 2556,
      "giriş": 2557,
      "ib": 2558,
      "ana": 2559,
      "##isini": 2560,
      "olabilir": 2561,
      "konusu": 2562,
      "dile": 2563,
      "##bo": 2564,
      "uluslararası": 2565,
      "otomo": 2566,
      "silah": 2567,
      "kent": 2568,
      "işte": 2569,
      "kesin": 2570,
      "ayak": 2571,
      "olup": 2572,
      "##laması": 2573,
      "ilet": 2574,
      "cen": 2575,
      "bes": 2576,
      "##düğ": 2577,
      "##ekli": 2578,
      "boş": 2579,
      "üzerinden": 2580,
      "##sın": 2581,
      "##larınız": 2582,
      "##aş": 2583,
      "sam": 2584,
      "li": 2585,
      "##vet": 2586,
      "yurt": 2587,
      "##´da": 2588,
      "oluyor": 2589,
      "temsil": 2590,
      "##şam": 2591,
      "aydın": 2592,
      "gez": 2593,
      "cin": 2594,
      "##yar": 2595,
      "model": 2596,
      "görül": 2597,
      "rağmen": 2598,
      "##duk": 2599,
      "yetk": 2600,
      "##ğında": 2601,
      "yapmak": 2602,
      "buna": 2603,
      "aşağı": 2604,
      "##ari": 2605,
      "net": 2606,
      "sını": 2607,
      "edi": 2608,
      "ders": 2609,
      "operasyon": 2610,
      "ona": 2611,
      "##spor": 2612,
      "##ilerine": 2613,
      "##talya": 2614,
      "fran": 2615,
      "meydana": 2616,
      "düzenlenen": 2617,
      "geniş": 2618,
      "oyuncu": 2619,
      "##lanması": 2620,
      "gerçekleş": 2621,
      "lig": 2622,
      "##sen": 2623,
      "vardı": 2624,
      "müşter": 2625,
      "enerj": 2626,
      "ederek": 2627,
      "mart": 2628,
      "##sunuz": 2629,
      "dakika": 2630,
      "savun": 2631,
      "beni": 2632,
      "aras": 2633,
      "mik": 2634,
      "##ladığı": 2635,
      "##eler": 2636,
      "tabi": 2637,
      "musta": 2638,
      "yi": 2639,
      "rap": 2640,
      "kalk": 2641,
      "elde": 2642,
      "siv": 2643,
      "##meleri": 2644,
      "21": 2645,
      "##sanız": 2646,
      "ila": 2647,
      "renk": 2648,
      "sanay": 2649,
      "mağ": 2650,
      "##ilerini": 2651,
      "aldığı": 2652,
      "##imize": 2653,
      "##ate": 2654,
      "devr": 2655,
      "gelecek": 2656,
      "bab": 2657,
      "le": 2658,
      "gi": 2659,
      "dol": 2660,
      "##imizi": 2661,
      "##istan": 2662,
      "dör": 2663,
      "çiz": 2664,
      "yüksel": 2665,
      "mümkün": 2666,
      "şekl": 2667,
      "##lemek": 2668,
      "adım": 2669,
      "##pit": 2670,
      "yaban": 2671,
      "##vek": 2672,
      "##layacak": 2673,
      "ner": 2674,
      "##isyon": 2675,
      "mustafa": 2676,
      "amer": 2677,
      "co": 2678,
      "don": 2679,
      "##isinin": 2680,
      "##unuyor": 2681,
      "##ınca": 2682,
      "##inizi": 2683,
      "anad": 2684,
      "müs": 2685,
      "tra": 2686,
      "yıldır": 2687,
      "diz": 2688,
      "##menin": 2689,
      "kaybet": 2690,
      "imza": 2691,
      "gereken": 2692,
      "22": 2693,
      "öyle": 2694,
      "##meyen": 2695,
      "edin": 2696,
      "işlet": 2697,
      "##mey": 2698,
      "##mayan": 2699,
      "##do": 2700,
      "kuruluş": 2701,
      "yarı": 2702,
      "##nız": 2703,
      "özg": 2704,
      "sınıf": 2705,
      "##şık": 2706,
      "##bz": 2707,
      "değiştir": 2708,
      "dolar": 2709,
      "size": 2710,
      "kilo": 2711,
      "fat": 2712,
      "ettiği": 2713,
      "firma": 2714,
      "beklen": 2715,
      "##üph": 2716,
      "amacı": 2717,
      "##izm": 2718,
      "dolayı": 2719,
      "ora": 2720,
      "chp": 2721,
      "yı": 2722,
      "bize": 2723,
      "yarat": 2724,
      "herhan": 2725,
      "idar": 2726,
      "##cılık": 2727,
      "fet": 2728,
      "olmayan": 2729,
      "kuş": 2730,
      "çözüm": 2731,
      "şüph": 2732,
      "pers": 2733,
      "kurt": 2734,
      "##ğın": 2735,
      "edecek": 2736,
      "yalnız": 2737,
      "asker": 2738,
      "##eceğini": 2739,
      "##pa": 2740,
      "herhangi": 2741,
      "##imde": 2742,
      "hav": 2743,
      "hale": 2744,
      "bakım": 2745,
      "anadolu": 2746,
      "çift": 2747,
      "boyunca": 2748,
      "sürec": 2749,
      "anda": 2750,
      "##po": 2751,
      "##ılmış": 2752,
      "istem": 2753,
      "##les": 2754,
      "çeşitli": 2755,
      "va": 2756,
      "müda": 2757,
      "giy": 2758,
      "##tay": 2759,
      "rapor": 2760,
      "tran": 2761,
      "üy": 2762,
      "##diler": 2763,
      "şamp": 2764,
      "##bilecek": 2765,
      "daki": 2766,
      "tespit": 2767,
      "##lendi": 2768,
      "##bat": 2769,
      "bal": 2770,
      "##lardır": 2771,
      "##fet": 2772,
      "demok": 2773,
      "dayan": 2774,
      "oldukça": 2775,
      "yazılı": 2776,
      "sına": 2777,
      "derece": 2778,
      "lira": 2779,
      "##dül": 2780,
      "ülkemiz": 2781,
      "##sınız": 2782,
      "dağı": 2783,
      "otomobil": 2784,
      "yetiş": 2785,
      "23": 2786,
      "##yo": 2787,
      "kalan": 2788,
      "inşa": 2789,
      "anlat": 2790,
      "##elen": 2791,
      "yemek": 2792,
      "##niyet": 2793,
      "kuz": 2794,
      "##erli": 2795,
      "traf": 2796,
      "politik": 2797,
      "gür": 2798,
      "karış": 2799,
      "nokta": 2800,
      "tep": 2801,
      "cih": 2802,
      "adet": 2803,
      "##muştur": 2804,
      "şehit": 2805,
      "sig": 2806,
      "gök": 2807,
      "##inci": 2808,
      "##lül": 2809,
      "sıcak": 2810,
      "no": 2811,
      "doğal": 2812,
      "yanında": 2813,
      "##´nin": 2814,
      "üretim": 2815,
      "ihra": 2816,
      "gru": 2817,
      "fay": 2818,
      "bakanı": 2819,
      "bakanlığı": 2820,
      "altın": 2821,
      "##sat": 2822,
      "##lâ": 2823,
      "emek": 2824,
      "amaç": 2825,
      "piyas": 2826,
      "kayıt": 2827,
      "çevr": 2828,
      "açıklamada": 2829,
      "cumhurbaşkanı": 2830,
      "beyaz": 2831,
      "ihtiyaç": 2832,
      "dışında": 2833,
      "milletvek": 2834,
      "çocu": 2835,
      "trans": 2836,
      "num": 2837,
      "##anlı": 2838,
      "##mızı": 2839,
      "nit": 2840,
      "##lardı": 2841,
      "geliyor": 2842,
      "oku": 2843,
      "sonucu": 2844,
      "yapılacak": 2845,
      "şampiyon": 2846,
      "vide": 2847,
      "isteyen": 2848,
      "tu": 2849,
      "may": 2850,
      "basın": 2851,
      "hatır": 2852,
      "##atür": 2853,
      "mot": 2854,
      "çarp": 2855,
      "yazı": 2856,
      "bat": 2857,
      "##ğınız": 2858,
      "##ilmiş": 2859,
      "kötü": 2860,
      "suriye": 2861,
      "nak": 2862,
      "ilçesinde": 2863,
      "unut": 2864,
      "sahibi": 2865,
      "##rah": 2866,
      "halinde": 2867,
      "örgüt": 2868,
      "##dis": 2869,
      "##ene": 2870,
      "gider": 2871,
      "müdürü": 2872,
      "biç": 2873,
      "fik": 2874,
      "person": 2875,
      "det": 2876,
      "değildir": 2877,
      "##lında": 2878,
      "medya": 2879,
      "yolu": 2880,
      "tör": 2881,
      "zarar": 2882,
      "alınan": 2883,
      "talep": 2884,
      "##ela": 2885,
      "özellik": 2886,
      "2017": 2887,
      "##dikleri": 2888,
      "ölüm": 2889,
      "yabancı": 2890,
      "##sına": 2891,
      "yapıyor": 2892,
      "yöntem": 2893,
      "ail": 2894,
      "##matik": 2895,
      "hızlı": 2896,
      "##ılır": 2897,
      "milyar": 2898,
      "kre": 2899,
      "sel": 2900,
      "yapa": 2901,
      "##dek": 2902,
      "pan": 2903,
      "ağu": 2904,
      "ann": 2905,
      "sarı": 2906,
      "##mat": 2907,
      "yaptık": 2908,
      "gerekli": 2909,
      "##isine": 2910,
      "##ledi": 2911,
      "kurban": 2912,
      "##luluk": 2913,
      "##ilerinin": 2914,
      "##ğe": 2915,
      "yık": 2916,
      "saç": 2917,
      "##yas": 2918,
      "##umu": 2919,
      "bulunduğu": 2920,
      "ağust": 2921,
      "web": 2922,
      "şart": 2923,
      "öğretmen": 2924,
      "ruh": 2925,
      "##manız": 2926,
      "belirten": 2927,
      "ata": 2928,
      "mesaj": 2929,
      "lid": 2930,
      "yıllık": 2931,
      "##mer": 2932,
      "dünyanın": 2933,
      "sabah": 2934,
      "kişinin": 2935,
      "##bek": 2936,
      "##´de": 2937,
      "öldür": 2938,
      "##aten": 2939,
      "hesap": 2940,
      "fayda": 2941,
      "##esinden": 2942,
      "sonunda": 2943,
      "öner": 2944,
      "sem": 2945,
      "list": 2946,
      "emniyet": 2947,
      "##gen": 2948,
      "benzer": 2949,
      "tüket": 2950,
      "kira": 2951,
      "hatta": 2952,
      "kaf": 2953,
      "sözleş": 2954,
      "kuv": 2955,
      "##eleri": 2956,
      "sol": 2957,
      "ahmet": 2958,
      "##taj": 2959,
      "##düğü": 2960,
      "##diğimiz": 2961,
      "düşünü": 2962,
      "olsa": 2963,
      "direk": 2964,
      "ağustos": 2965,
      "şeklinde": 2966,
      "##set": 2967,
      "parça": 2968,
      "örnek": 2969,
      "çan": 2970,
      "##tiv": 2971,
      "gar": 2972,
      "almak": 2973,
      "##kaç": 2974,
      "go": 2975,
      "ister": 2976,
      "199": 2977,
      "ortam": 2978,
      "kullanıcı": 2979,
      "uzman": 2980,
      "ekonomik": 2981,
      "##ücü": 2982,
      "##bay": 2983,
      "ten": 2984,
      "##meler": 2985,
      "tık": 2986,
      "eser": 2987,
      "tarım": 2988,
      "akşam": 2989,
      "##miyor": 2990,
      "##sını": 2991,
      "ilan": 2992,
      "gerekir": 2993,
      "40": 2994,
      "ölç": 2995,
      "verilen": 2996,
      "vurgu": 2997,
      "##mada": 2998,
      "puan": 2999,
      "ekipleri": 3000,
      "##cut": 3001,
      "##lanmış": 3002,
      "belli": 3003,
      "soy": 3004,
      "gol": 3005,
      "kasım": 3006,
      "##lamaya": 3007,
      "tay": 3008,
      "##dız": 3009,
      "bundan": 3010,
      "##üf": 3011,
      "nis": 3012,
      "cevap": 3013,
      "##lerce": 3014,
      "##diğiniz": 3015,
      "cid": 3016,
      "şark": 3017,
      "geçmiş": 3018,
      "##layarak": 3019,
      "##lin": 3020,
      "adına": 3021,
      "yapar": 3022,
      "##mıyor": 3023,
      "anne": 3024,
      "##rik": 3025,
      "sınav": 3026,
      "##ydı": 3027,
      "ödül": 3028,
      "türlü": 3029,
      "yapıldı": 3030,
      "canlı": 3031,
      "aslında": 3032,
      "çevre": 3033,
      "ağa": 3034,
      "##tesi": 3035,
      "götür": 3036,
      "giz": 3037,
      "güçlü": 3038,
      "mevcut": 3039,
      "##ısından": 3040,
      "##ast": 3041,
      "ra": 3042,
      "hükümet": 3043,
      "dört": 3044,
      "durumda": 3045,
      "##ırı": 3046,
      "mutlu": 3047,
      "yarar": 3048,
      "##üman": 3049,
      "banka": 3050,
      "31": 3051,
      "bursa": 3052,
      "birkaç": 3053,
      "yılı": 3054,
      "##amız": 3055,
      "malz": 3056,
      "##abilirsiniz": 3057,
      "mis": 3058,
      "##cat": 3059,
      "sizin": 3060,
      "nor": 3061,
      "deki": 3062,
      "##20": 3063,
      "büyü": 3064,
      "hayır": 3065,
      "##lanır": 3066,
      "##dıkları": 3067,
      "dal": 3068,
      "yazar": 3069,
      "##iliği": 3070,
      "birliği": 3071,
      "##eder": 3072,
      "çin": 3073,
      "toprak": 3074,
      "hik": 3075,
      "onlar": 3076,
      "ris": 3077,
      "##lığını": 3078,
      "yeş": 3079,
      "zaten": 3080,
      "sırasında": 3081,
      "##ras": 3082,
      "hâ": 3083,
      "ateş": 3084,
      "aşk": 3085,
      "##ko": 3086,
      "##lilik": 3087,
      "sürekli": 3088,
      "sistemi": 3089,
      "yıldız": 3090,
      "##rek": 3091,
      "##laştır": 3092,
      "belki": 3093,
      "sokak": 3094,
      "##lış": 3095,
      "girişim": 3096,
      "güneş": 3097,
      "##lanma": 3098,
      "kas": 3099,
      "rak": 3100,
      "##med": 3101,
      "tarihinde": 3102,
      "ni": 3103,
      "balık": 3104,
      "katkı": 3105,
      "hangi": 3106,
      "##go": 3107,
      "##ecektir": 3108,
      "str": 3109,
      "mahallesi": 3110,
      "antalya": 3111,
      "##onu": 3112,
      "günde": 3113,
      "resim": 3114,
      "önceki": 3115,
      "kapı": 3116,
      "tartış": 3117,
      "##ele": 3118,
      "başarılı": 3119,
      "kalite": 3120,
      "min": 3121,
      "##ite": 3122,
      "etkinlik": 3123,
      "nokt": 3124,
      "hen": 3125,
      "çer": 3126,
      "##terek": 3127,
      "iddia": 3128,
      "br": 3129,
      "demek": 3130,
      "cihaz": 3131,
      "##ısıyla": 3132,
      "doktor": 3133,
      "olmaya": 3134,
      "##dük": 3135,
      "karak": 3136,
      "sh": 3137,
      "kuvvet": 3138,
      "acı": 3139,
      "davran": 3140,
      "##masında": 3141,
      "28": 3142,
      "araya": 3143,
      "elektrik": 3144,
      "27": 3145,
      "rusya": 3146,
      "##esel": 3147,
      "deney": 3148,
      "##üncü": 3149,
      "işaret": 3150,
      "sanayi": 3151,
      "26": 3152,
      "bilgis": 3153,
      "pr": 3154,
      "yu": 3155,
      "dost": 3156,
      "##fi": 3157,
      "ingiliz": 3158,
      "zorunda": 3159,
      "##iran": 3160,
      "detay": 3161,
      "çoğ": 3162,
      "insanlar": 3163,
      "yargı": 3164,
      "verdiği": 3165,
      "güney": 3166,
      "##gar": 3167,
      "konuda": 3168,
      "iletişim": 3169,
      "soğ": 3170,
      "akıl": 3171,
      "bunlar": 3172,
      "denet": 3173,
      "başvuru": 3174,
      "atatür": 3175,
      "2016": 3176,
      "kullandı": 3177,
      "kararı": 3178,
      "sp": 3179,
      "müh": 3180,
      "sayesinde": 3181,
      "altına": 3182,
      "##ああ": 3183,
      "mur": 3184,
      "doğr": 3185,
      "resmi": 3186,
      "etme": 3187,
      "not": 3188,
      "sonrası": 3189,
      "teslim": 3190,
      "aktar": 3191,
      "##ilerek": 3192,
      "##dal": 3193,
      "aj": 3194,
      "alış": 3195,
      "##osu": 3196,
      "##luğ": 3197,
      "kuzey": 3198,
      "gec": 3199,
      "yuk": 3200,
      "gazi": 3201,
      "sebep": 3202,
      "tesis": 3203,
      "pen": 3204,
      "orman": 3205,
      "atatürk": 3206,
      "alıyor": 3207,
      "dahil": 3208,
      "ant": 3209,
      "##altı": 3210,
      "izin": 3211,
      "##ıyla": 3212,
      "nedenle": 3213,
      "başbak": 3214,
      "komut": 3215,
      "durumu": 3216,
      "süreç": 3217,
      "yaşayan": 3218,
      "gem": 3219,
      "hastalık": 3220,
      "ocak": 3221,
      "otel": 3222,
      "bank": 3223,
      "##lanıyor": 3224,
      "meclis": 3225,
      "çalışıyor": 3226,
      "yana": 3227,
      "gerekiyor": 3228,
      "kredi": 3229,
      "zen": 3230,
      "özgür": 3231,
      "mark": 3232,
      "yerde": 3233,
      "kab": 3234,
      "bilgisay": 3235,
      "##luğu": 3236,
      "arasındaki": 3237,
      "##ucu": 3238,
      "##âr": 3239,
      "açısından": 3240,
      "kendini": 3241,
      "islam": 3242,
      "hayatını": 3243,
      "fener": 3244,
      "yat": 3245,
      "jan": 3246,
      "##tiğimiz": 3247,
      "##lığın": 3248,
      "istiyor": 3249,
      "##inc": 3250,
      "yum": 3251,
      "##diklerini": 3252,
      "##ion": 3253,
      "##deniz": 3254,
      "eylül": 3255,
      "kamer": 3256,
      "##aliz": 3257,
      "siyasi": 3258,
      "doğu": 3259,
      "ordu": 3260,
      "tutuk": 3261,
      "##üğ": 3262,
      "fer": 3263,
      "güncel": 3264,
      "süp": 3265,
      "verildi": 3266,
      "yaşındaki": 3267,
      "bağım": 3268,
      "ettik": 3269,
      "sab": 3270,
      "tasarım": 3271,
      "##yum": 3272,
      "##işleri": 3273,
      "##´ın": 3274,
      "ayında": 3275,
      "itibaren": 3276,
      "aracı": 3277,
      "yerel": 3278,
      "amacıyla": 3279,
      "yere": 3280,
      "izle": 3281,
      "##ov": 3282,
      "açı": 3283,
      "kaldı": 3284,
      "##par": 3285,
      "teklif": 3286,
      "sırada": 3287,
      "##labilir": 3288,
      "bilgiler": 3289,
      "baba": 3290,
      "##of": 3291,
      "başlayan": 3292,
      "sene": 3293,
      "video": 3294,
      "##fak": 3295,
      "yardımcısı": 3296,
      "##yız": 3297,
      "belirterek": 3298,
      "duyur": 3299,
      "##viz": 3300,
      "temsilc": 3301,
      "##şe": 3302,
      "ünlü": 3303,
      "osmanlı": 3304,
      "çalışmaları": 3305,
      "ark": 3306,
      "kullanı": 3307,
      "enerji": 3308,
      "##neği": 3309,
      "yeşil": 3310,
      "##ğına": 3311,
      "şi": 3312,
      "boğ": 3313,
      "##lerdir": 3314,
      "yaşanan": 3315,
      "öğrenciler": 3316,
      "yun": 3317,
      "yandan": 3318,
      "stan": 3319,
      "kir": 3320,
      "haziran": 3321,
      "gerçekten": 3322,
      "##teg": 3323,
      "##esiyle": 3324,
      "servis": 3325,
      "dönemde": 3326,
      "kayde": 3327,
      "gay": 3328,
      "##lığına": 3329,
      "müzik": 3330,
      "pey": 3331,
      "fes": 3332,
      "##liğini": 3333,
      "turizm": 3334,
      "sefer": 3335,
      "bi": 3336,
      "tama": 3337,
      "bahç": 3338,
      "kimse": 3339,
      "atı": 3340,
      "kendisine": 3341,
      "##labil": 3342,
      "##manı": 3343,
      "koca": 3344,
      "deste": 3345,
      "##ülen": 3346,
      "##ina": 3347,
      "ileri": 3348,
      "ciddi": 3349,
      "olmaz": 3350,
      "##evi": 3351,
      "##lıkla": 3352,
      "saldırı": 3353,
      "üyesi": 3354,
      "yasa": 3355,
      "park": 3356,
      "nef": 3357,
      "vali": 3358,
      "nisan": 3359,
      "mobil": 3360,
      "önünde": 3361,
      "fu": 3362,
      "##larım": 3363,
      "onların": 3364,
      "laz": 3365,
      "##lığa": 3366,
      "##büs": 3367,
      "başına": 3368,
      "hoş": 3369,
      "barış": 3370,
      "tamamen": 3371,
      "günlük": 3372,
      "açılı": 3373,
      "dolayısıyla": 3374,
      "35": 3375,
      "##atif": 3376,
      "bilgisayar": 3377,
      "mus": 3378,
      "##imin": 3379,
      "##asyonu": 3380,
      "sayısı": 3381,
      "çi": 3382,
      "##memiş": 3383,
      "##larımızın": 3384,
      "bura": 3385,
      "yanlış": 3386,
      "şid": 3387,
      "adlı": 3388,
      "##lanacak": 3389,
      "artır": 3390,
      "alındı": 3391,
      "iran": 3392,
      "iler": 3393,
      "transfer": 3394,
      "huz": 3395,
      "##one": 3396,
      "us": 3397,
      "ediyorum": 3398,
      "üz": 3399,
      "trafik": 3400,
      "diyor": 3401,
      "##leti": 3402,
      "29": 3403,
      "vaz": 3404,
      "çat": 3405,
      "##av": 3406,
      "nes": 3407,
      "tehlik": 3408,
      "##ton": 3409,
      "##üst": 3410,
      "olabil": 3411,
      "kadro": 3412,
      "sayılı": 3413,
      "müsl": 3414,
      "lo": 3415,
      "aralık": 3416,
      "haline": 3417,
      "##liye": 3418,
      "sayıda": 3419,
      "##ni": 3420,
      "insanların": 3421,
      "##to": 3422,
      "katılım": 3423,
      "##mesinin": 3424,
      "meslek": 3425,
      "##lulu": 3426,
      "##diğim": 3427,
      "tedav": 3428,
      "bizi": 3429,
      "tedavi": 3430,
      "fenerbah": 3431,
      "##hal": 3432,
      "##eyin": 3433,
      "##teki": 3434,
      "bayan": 3435,
      "##enek": 3436,
      "##hbet": 3437,
      "sul": 3438,
      "key": 3439,
      "##nun": 3440,
      "huzur": 3441,
      "##madığı": 3442,
      "fakül": 3443,
      "##form": 3444,
      "tanım": 3445,
      "kaydet": 3446,
      "katıldı": 3447,
      "milletvekili": 3448,
      "alanda": 3449,
      "kemal": 3450,
      "##medi": 3451,
      "yansı": 3452,
      "##ullah": 3453,
      "##ladık": 3454,
      "##ıldığı": 3455,
      "tip": 3456,
      "malzeme": 3457,
      "##irken": 3458,
      "hır": 3459,
      "göç": 3460,
      "beşik": 3461,
      "gerektiğini": 3462,
      "pak": 3463,
      "defa": 3464,
      "zey": 3465,
      "oluşan": 3466,
      "pla": 3467,
      "kanun": 3468,
      "belirtti": 3469,
      "##mayacak": 3470,
      "ker": 3471,
      "sohbet": 3472,
      "nerede": 3473,
      "sayı": 3474,
      "##ebilirsiniz": 3475,
      "ekim": 3476,
      "kapat": 3477,
      "yüzden": 3478,
      "çö": 3479,
      "mor": 3480,
      "depr": 3481,
      "pas": 3482,
      "##latasar": 3483,
      "yaptır": 3484,
      "pet": 3485,
      "bunların": 3486,
      "sıkıntı": 3487,
      "sayfa": 3488,
      "oyna": 3489,
      "eur": 3490,
      "ihracat": 3491,
      "##üle": 3492,
      "kılı": 3493,
      "##sine": 3494,
      "orada": 3495,
      "000": 3496,
      "##co": 3497,
      "kullanım": 3498,
      "hisse": 3499,
      "##ansı": 3500,
      "alır": 3501,
      "kurtar": 3502,
      "##latasaray": 3503,
      "cep": 3504,
      "böylece": 3505,
      "süper": 3506,
      "##çev": 3507,
      "##deli": 3508,
      "mahkem": 3509,
      "istik": 3510,
      "personel": 3511,
      "tas": 3512,
      "üniversite": 3513,
      "artış": 3514,
      "galatasaray": 3515,
      "ekran": 3516,
      "keli": 3517,
      "henüz": 3518,
      "sü": 3519,
      "başta": 3520,
      "fi": 3521,
      "dek": 3522,
      "onları": 3523,
      "samsun": 3524,
      "merak": 3525,
      "##imli": 3526,
      "yukarı": 3527,
      "bulunuyor": 3528,
      "gözalt": 3529,
      "mon": 3530,
      "arada": 3531,
      "mahalle": 3532,
      "##ale": 3533,
      "olmadığını": 3534,
      "bağlantı": 3535,
      "konut": 3536,
      "keş": 3537,
      "müslüman": 3538,
      "başında": 3539,
      "çevir": 3540,
      "bekliyor": 3541,
      "alacak": 3542,
      "kem": 3543,
      "soruştur": 3544,
      "##ğine": 3545,
      "vermek": 3546,
      "##ant": 3547,
      "##bzon": 3548,
      "##anıyor": 3549,
      "olacaktır": 3550,
      "kulüb": 3551,
      "kanal": 3552,
      "mayıs": 3553,
      "kullanılan": 3554,
      "##gaz": 3555,
      "beşiktaş": 3556,
      "satın": 3557,
      "##uldu": 3558,
      "kampan": 3559,
      "derin": 3560,
      "##cılar": 3561,
      "motor": 3562,
      "##dam": 3563,
      "##´nın": 3564,
      "birinci": 3565,
      "##etin": 3566,
      "##muştu": 3567,
      "yoktur": 3568,
      "gören": 3569,
      "düzey": 3570,
      "##oloji": 3571,
      "isten": 3572,
      "sonrasında": 3573,
      "almanya": 3574,
      "örgü": 3575,
      "hap": 3576,
      "trabzon": 3577,
      "uğra": 3578,
      "##lenmesi": 3579,
      "##zu": 3580,
      "##siye": 3581,
      "45": 3582,
      "##dr": 3583,
      "batı": 3584,
      "çerçev": 3585,
      "jandar": 3586,
      "##sızlık": 3587,
      "tatil": 3588,
      "##ğinde": 3589,
      "marka": 3590,
      "500": 3591,
      "kart": 3592,
      "##ger": 3593,
      "şik": 3594,
      "##tep": 3595,
      "danış": 3596,
      "yavaş": 3597,
      "işç": 3598,
      "müdahale": 3599,
      "mekan": 3600,
      "wh": 3601,
      "diş": 3602,
      "##ia": 3603,
      "##etler": 3604,
      "eksik": 3605,
      "##lıklı": 3606,
      "##ef": 3607,
      "memnun": 3608,
      "kaza": 3609,
      "fenerbahçe": 3610,
      "sayıs": 3611,
      "eylem": 3612,
      "##malar": 3613,
      "sorum": 3614,
      "esk": 3615,
      "##iydi": 3616,
      "düşük": 3617,
      "tören": 3618,
      "ilaç": 3619,
      "##ilecek": 3620,
      "cad": 3621,
      "##malıdır": 3622,
      "sonuc": 3623,
      "##ly": 3624,
      "perfor": 3625,
      "tec": 3626,
      "kadınlar": 3627,
      "##olojik": 3628,
      "##larımızı": 3629,
      "##emez": 3630,
      "gözaltına": 3631,
      "yangın": 3632,
      "adres": 3633,
      "zengin": 3634,
      "ışık": 3635,
      "çocuğ": 3636,
      "namaz": 3637,
      "yapacak": 3638,
      "içeri": 3639,
      "başkanlığı": 3640,
      "##ümü": 3641,
      "##ırken": 3642,
      "çay": 3643,
      "belg": 3644,
      "##kk": 3645,
      "##iliyor": 3646,
      "beri": 3647,
      "tıp": 3648,
      "aya": 3649,
      "##eceğiz": 3650,
      "alma": 3651,
      "##lığında": 3652,
      "lider": 3653,
      "yerleş": 3654,
      "programı": 3655,
      "performan": 3656,
      "anlay": 3657,
      "##lamaz": 3658,
      "rol": 3659,
      "2015": 3660,
      "ef": 3661,
      "davet": 3662,
      "##str": 3663,
      "halde": 3664,
      "normal": 3665,
      "##lediği": 3666,
      "##eniz": 3667,
      "gazetec": 3668,
      "##asıyla": 3669,
      "seviy": 3670,
      "dünyada": 3671,
      "güm": 3672,
      "##tepe": 3673,
      "##tere": 3674,
      "lim": 3675,
      "istih": 3676,
      "yeri": 3677,
      "günümüz": 3678,
      "##yıl": 3679,
      "##ulan": 3680,
      "##ama": 3681,
      "aylık": 3682,
      "##tığını": 3683,
      "kup": 3684,
      "esas": 3685,
      "ilgi": 3686,
      "fon": 3687,
      "##meliy": 3688,
      "kıb": 3689,
      "##yip": 3690,
      "##tiler": 3691,
      "##mar": 3692,
      "askeri": 3693,
      "faiz": 3694,
      "olmadığı": 3695,
      "##cağım": 3696,
      "##ileş": 3697,
      "görüyor": 3698,
      "demokras": 3699,
      "savunma": 3700,
      "##ceği": 3701,
      "istiyorum": 3702,
      "prot": 3703,
      "birleş": 3704,
      "yerinde": 3705,
      "ir": 3706,
      "şiddet": 3707,
      "eğlen": 3708,
      "60": 3709,
      "##sini": 3710,
      "zam": 3711,
      "düşünce": 3712,
      "şehr": 3713,
      "içine": 3714,
      "borç": 3715,
      "hayata": 3716,
      "##ich": 3717,
      "ton": 3718,
      "ce": 3719,
      "memur": 3720,
      "sayın": 3721,
      "prob": 3722,
      "bebek": 3723,
      "##rıs": 3724,
      "altı": 3725,
      "##best": 3726,
      "gönül": 3727,
      "##od": 3728,
      "##edeki": 3729,
      "başbakan": 3730,
      "uçak": 3731,
      "##desi": 3732,
      "bol": 3733,
      "sevk": 3734,
      "##veriş": 3735,
      "emin": 3736,
      "tor": 3737,
      "##eyle": 3738,
      "198": 3739,
      "##´in": 3740,
      "arac": 3741,
      "day": 3742,
      "##liğinde": 3743,
      "yönetic": 3744,
      "koşul": 3745,
      "kişiler": 3746,
      "yapma": 3747,
      "dava": 3748,
      "sağlıklı": 3749,
      "kok": 3750,
      "dis": 3751,
      "ikti": 3752,
      "##tıyor": 3753,
      "##unları": 3754,
      "belge": 3755,
      "profes": 3756,
      "##bur": 3757,
      "##ana": 3758,
      "##landığı": 3759,
      "alanında": 3760,
      "yetkil": 3761,
      "arama": 3762,
      "##âh": 3763,
      "##lenme": 3764,
      "hol": 3765,
      "##iyeti": 3766,
      "öğrenci": 3767,
      "ic": 3768,
      "yayım": 3769,
      "##ilendir": 3770,
      "##inç": 3771,
      "olmalı": 3772,
      "çal": 3773,
      "sevg": 3774,
      "teknoloji": 3775,
      "##inize": 3776,
      "hayal": 3777,
      "gide": 3778,
      "##eği": 3779,
      "meş": 3780,
      "imk": 3781,
      "öğretim": 3782,
      "derneği": 3783,
      "varsa": 3784,
      "serbest": 3785,
      "darbe": 3786,
      "dışı": 3787,
      "nüf": 3788,
      "dolu": 3789,
      "plat": 3790,
      "teb": 3791,
      "yılmaz": 3792,
      "kims": 3793,
      "sunu": 3794,
      "##zi": 3795,
      "##isel": 3796,
      "çalışmalar": 3797,
      "##sk": 3798,
      "ces": 3799,
      "jandarma": 3800,
      "##abet": 3801,
      "##zı": 3802,
      "site": 3803,
      "yılın": 3804,
      "değişiklik": 3805,
      "aka": 3806,
      "##gam": 3807,
      "başar": 3808,
      "tok": 3809,
      "birey": 3810,
      "tarif": 3811,
      "kayb": 3812,
      "risk": 3813,
      "erz": 3814,
      "heyec": 3815,
      "hed": 3816,
      "beğ": 3817,
      "##liler": 3818,
      "kendisini": 3819,
      "murat": 3820,
      "hazırlık": 3821,
      "etik": 3822,
      "kullanıl": 3823,
      "##masından": 3824,
      "##amet": 3825,
      "eg": 3826,
      "gıda": 3827,
      "##anlığı": 3828,
      "geçtiğimiz": 3829,
      "nur": 3830,
      "mühen": 3831,
      "eleştir": 3832,
      "evet": 3833,
      "etkili": 3834,
      "sivil": 3835,
      "buluş": 3836,
      "hüs": 3837,
      "şeyi": 3838,
      "şeyler": 3839,
      "##çak": 3840,
      "sizi": 3841,
      "##cer": 3842,
      "##rail": 3843,
      "hafif": 3844,
      "kons": 3845,
      "olmuş": 3846,
      "ediyoruz": 3847,
      "yapılması": 3848,
      "ifadelerini": 3849,
      "fırsat": 3850,
      "##ğunu": 3851,
      "##kale": 3852,
      "boyut": 3853,
      "rece": 3854,
      "değerli": 3855,
      "karşısında": 3856,
      "##çuk": 3857,
      "##geç": 3858,
      "##sef": 3859,
      "siy": 3860,
      "##gör": 3861,
      "poz": 3862,
      "jo": 3863,
      "con": 3864,
      "kahr": 3865,
      "etmiş": 3866,
      "##lasyon": 3867,
      "pkk": 3868,
      "fiz": 3869,
      "problem": 3870,
      "işi": 3871,
      "yönetimi": 3872,
      "##ump": 3873,
      "karş": 3874,
      "duygu": 3875,
      "##kenin": 3876,
      "onay": 3877,
      "##tion": 3878,
      "kıbrıs": 3879,
      "##are": 3880,
      "##cık": 3881,
      "##lip": 3882,
      "##sur": 3883,
      "##liğin": 3884,
      "sultan": 3885,
      "inceleme": 3886,
      "dışarı": 3887,
      "projesi": 3888,
      "şiir": 3889,
      "##taki": 3890,
      "##son": 3891,
      "ulusal": 3892,
      "lazım": 3893,
      "imam": 3894,
      "van": 3895,
      "adana": 3896,
      "salon": 3897,
      "he": 3898,
      "##cilik": 3899,
      "sitesi": 3900,
      "kural": 3901,
      "##lisi": 3902,
      "test": 3903,
      "kong": 3904,
      "##lev": 3905,
      "saha": 3906,
      "def": 3907,
      "kurtul": 3908,
      "kamp": 3909,
      "üçüncü": 3910,
      "##sının": 3911,
      "sorumlu": 3912,
      "onlara": 3913,
      "miktar": 3914,
      "##ceğiz": 3915,
      "çocuklar": 3916,
      "göl": 3917,
      "kış": 3918,
      "işletme": 3919,
      "sona": 3920,
      "çıkış": 3921,
      "meydan": 3922,
      "##larca": 3923,
      "senin": 3924,
      "tw": 3925,
      "##lal": 3926,
      "edilmesi": 3927,
      "ücretsiz": 3928,
      "yaralı": 3929,
      "cil": 3930,
      "çağrı": 3931,
      "##sü": 3932,
      "sil": 3933,
      "alanı": 3934,
      "başlat": 3935,
      "hasan": 3936,
      "anlayış": 3937,
      "2014": 3938,
      "##esindeki": 3939,
      "hab": 3940,
      "amerika": 3941,
      "döneminde": 3942,
      "##aka": 3943,
      "kahraman": 3944,
      "uc": 3945,
      "##ess": 3946,
      "komisyon": 3947,
      "fatih": 3948,
      "##baş": 3949,
      "##ku": 3950,
      "##ülü": 3951,
      "inşaat": 3952,
      "ez": 3953,
      "##abilecek": 3954,
      "##liğe": 3955,
      "##etik": 3956,
      "önüne": 3957,
      "şube": 3958,
      "deprem": 3959,
      "##allah": 3960,
      "giden": 3961,
      "öne": 3962,
      "kaydetti": 3963,
      "tez": 3964,
      "##dit": 3965,
      "##laka": 3966,
      "siyaset": 3967,
      "mim": 3968,
      "ırak": 3969,
      "##artesi": 3970,
      "yanıt": 3971,
      "işbir": 3972,
      "mıs": 3973,
      "##oz": 3974,
      "recep": 3975,
      "##asından": 3976,
      "##alım": 3977,
      "##osya": 3978,
      "ağrı": 3979,
      "parç": 3980,
      "dağ": 3981,
      "mat": 3982,
      "##ilebilir": 3983,
      "##ündeki": 3984,
      "##ımıza": 3985,
      "düğ": 3986,
      "bı": 3987,
      "##ımızın": 3988,
      "##ult": 3989,
      "kısm": 3990,
      "erken": 3991,
      "form": 3992,
      "toplu": 3993,
      "naz": 3994,
      "bitir": 3995,
      "##ildiği": 3996,
      "kendisi": 3997,
      "ingiltere": 3998,
      "koruma": 3999,
      "yürüt": 4000,
      "konuşma": 4001,
      "##50": 4002,
      "fab": 4003,
      "alarak": 4004,
      "bunları": 4005,
      "grubu": 4006,
      "israil": 4007,
      "##tarı": 4008,
      "kılıç": 4009,
      "psik": 4010,
      "politika": 4011,
      "##lerimizi": 4012,
      "getiren": 4013,
      "metre": 4014,
      "bölümü": 4015,
      "açıkladı": 4016,
      "geçti": 4017,
      "alışveriş": 4018,
      "##onik": 4019,
      "##rol": 4020,
      "tv": 4021,
      "başlan": 4022,
      "futbolcu": 4023,
      "kıl": 4024,
      "kateg": 4025,
      "kategor": 4026,
      "hizmeti": 4027,
      "cami": 4028,
      "##başı": 4029,
      "moder": 4030,
      "yola": 4031,
      "çelik": 4032,
      "sayf": 4033,
      "duvar": 4034,
      "imkan": 4035,
      "bö": 4036,
      "##dıktan": 4037,
      "enf": 4038,
      "##laşı": 4039,
      "##diş": 4040,
      "yıldırım": 4041,
      "kırmızı": 4042,
      "yetiştir": 4043,
      "sert": 4044,
      "##umsuz": 4045,
      "##ınar": 4046,
      "geldiği": 4047,
      "fikir": 4048,
      "beden": 4049,
      "örne": 4050,
      "##mit": 4051,
      "reklam": 4052,
      "ülkenin": 4053,
      "yağı": 4054,
      "##lığının": 4055,
      "##ratik": 4056,
      "araştır": 4057,
      "süt": 4058,
      "olun": 4059,
      "durumunda": 4060,
      "hür": 4061,
      "tır": 4062,
      "##ceğini": 4063,
      "benz": 4064,
      "düzenlen": 4065,
      "##anan": 4066,
      "inş": 4067,
      "gösteren": 4068,
      "yeterli": 4069,
      "taz": 4070,
      "##ıyorum": 4071,
      "türkçe": 4072,
      "##rem": 4073,
      "##hane": 4074,
      "gur": 4075,
      "gündem": 4076,
      "fetö": 4077,
      "güc": 4078,
      "mutlaka": 4079,
      "##atör": 4080,
      "şa": 4081,
      "uyarı": 4082,
      "yaparak": 4083,
      "##ital": 4084,
      "odası": 4085,
      "kapalı": 4086,
      "op": 4087,
      "azal": 4088,
      "saygı": 4089,
      "ödeme": 4090,
      "##dıklarını": 4091,
      "red": 4092,
      "taşın": 4093,
      "##üler": 4094,
      "##lanarak": 4095,
      "tahmin": 4096,
      "yoksa": 4097,
      "ayır": 4098,
      "##sinin": 4099,
      "##gisi": 4100,
      "##ulması": 4101,
      "organiz": 4102,
      "bina": 4103,
      "etmeye": 4104,
      "hizmetleri": 4105,
      "satı": 4106,
      "##urum": 4107,
      "kala": 4108,
      "##cusu": 4109,
      "yerleştir": 4110,
      "yüzyıl": 4111,
      "merh": 4112,
      "##tey": 4113,
      "##line": 4114,
      "##düm": 4115,
      "##lıklar": 4116,
      "##meni": 4117,
      "söyleyen": 4118,
      "bayramı": 4119,
      "çiçek": 4120,
      "korun": 4121,
      "yas": 4122,
      "belirlen": 4123,
      "atan": 4124,
      "kıy": 4125,
      "şarkı": 4126,
      "##ünüz": 4127,
      "strate": 4128,
      "##ts": 4129,
      "peygam": 4130,
      "bür": 4131,
      "##her": 4132,
      "##rika": 4133,
      "##undaki": 4134,
      "doldur": 4135,
      "bazen": 4136,
      "uyar": 4137,
      "örgütü": 4138,
      "ayı": 4139,
      "doğum": 4140,
      "yav": 4141,
      "tabii": 4142,
      "port": 4143,
      "stand": 4144,
      "aray": 4145,
      "##limiz": 4146,
      "anay": 4147,
      "val": 4148,
      "amerik": 4149,
      "isimli": 4150,
      "##larımıza": 4151,
      "70": 4152,
      "bölgede": 4153,
      "giren": 4154,
      "##sas": 4155,
      "görüşme": 4156,
      "##siy": 4157,
      "##hp": 4158,
      "öncesi": 4159,
      "##duğunu": 4160,
      "mük": 4161,
      "adalet": 4162,
      "##imleri": 4163,
      "ağaç": 4164,
      "yılda": 4165,
      "siyah": 4166,
      "yah": 4167,
      "dök": 4168,
      "##haf": 4169,
      "ettir": 4170,
      "görmek": 4171,
      "esna": 4172,
      "efen": 4173,
      "##dağ": 4174,
      "sap": 4175,
      "cuma": 4176,
      "new": 4177,
      "sonraki": 4178,
      "adayı": 4179,
      "evde": 4180,
      "far": 4181,
      "08": 4182,
      "sine": 4183,
      "##seri": 4184,
      "sağlamak": 4185,
      "kaya": 4186,
      "stratej": 4187,
      "muham": 4188,
      "za": 4189,
      "##demir": 4190,
      "yaşadığı": 4191,
      "##ust": 4192,
      "ilçesi": 4193,
      "şen": 4194,
      "çeken": 4195,
      "akp": 4196,
      "yunan": 4197,
      "hastanesi": 4198,
      "yolc": 4199,
      "##meniz": 4200,
      "##orta": 4201,
      "mühendis": 4202,
      "kaliteli": 4203,
      "hd": 4204,
      "düşür": 4205,
      "##sim": 4206,
      "##amı": 4207,
      "gazete": 4208,
      "kızı": 4209,
      "kendine": 4210,
      "kayna": 4211,
      "verir": 4212,
      "fakültesi": 4213,
      "insanın": 4214,
      "##isa": 4215,
      "##ova": 4216,
      "##gal": 4217,
      "##ğinin": 4218,
      "direktör": 4219,
      "feder": 4220,
      "bankası": 4221,
      "##yse": 4222,
      "modern": 4223,
      "terörist": 4224,
      "şikayet": 4225,
      "hala": 4226,
      "##liğine": 4227,
      "veriyor": 4228,
      "peygamber": 4229,
      "kaymak": 4230,
      "01": 4231,
      "hediye": 4232,
      "konya": 4233,
      "ex": 4234,
      "itir": 4235,
      "numara": 4236,
      "mit": 4237,
      "olumsuz": 4238,
      "yolcu": 4239,
      "işleri": 4240,
      "80": 4241,
      "eb": 4242,
      "çap": 4243,
      "platform": 4244,
      "beğen": 4245,
      "şubat": 4246,
      "önümüz": 4247,
      "fizik": 4248,
      "##anlık": 4249,
      "##lana": 4250,
      "asla": 4251,
      "eve": 4252,
      "hisset": 4253,
      "##rahim": 4254,
      "ler": 4255,
      "öte": 4256,
      "##mür": 4257,
      "eğitimi": 4258,
      "anayas": 4259,
      "##mm": 4260,
      "tayyip": 4261,
      "haberler": 4262,
      "olmadan": 4263,
      "kalp": 4264,
      "çoğu": 4265,
      "öden": 4266,
      "##arında": 4267,
      "##istik": 4268,
      "dakik": 4269,
      "reh": 4270,
      "##laşma": 4271,
      "##layıp": 4272,
      "##iri": 4273,
      "trump": 4274,
      "##iyatı": 4275,
      "##ong": 4276,
      "tecr": 4277,
      "36": 4278,
      "##elt": 4279,
      "işe": 4280,
      "yaşında": 4281,
      "yalnızca": 4282,
      "karakter": 4283,
      "olursa": 4284,
      "oranı": 4285,
      "32": 4286,
      "şunları": 4287,
      "lik": 4288,
      "doğan": 4289,
      "##iklet": 4290,
      "cem": 4291,
      "içi": 4292,
      "sana": 4293,
      "hac": 4294,
      "05": 4295,
      "sürede": 4296,
      "##nu": 4297,
      "akadem": 4298,
      "esnaf": 4299,
      "tuz": 4300,
      "##layın": 4301,
      "tali": 4302,
      "##melidir": 4303,
      "şiş": 4304,
      "zira": 4305,
      "hüc": 4306,
      "##ğan": 4307,
      "##ps": 4308,
      "ürünleri": 4309,
      "90": 4310,
      "##ılma": 4311,
      "sürücü": 4312,
      "hesab": 4313,
      "olduğuna": 4314,
      "##mur": 4315,
      "sava": 4316,
      "euro": 4317,
      "##masıyla": 4318,
      "gr": 4319,
      "##ılmaz": 4320,
      "gali": 4321,
      "##ışma": 4322,
      "##elim": 4323,
      "lisans": 4324,
      "malat": 4325,
      "eşya": 4326,
      "takımı": 4327,
      "günlerde": 4328,
      "##dat": 4329,
      "şar": 4330,
      "haft": 4331,
      "arap": 4332,
      "##yal": 4333,
      "yaralandı": 4334,
      "saf": 4335,
      "davranış": 4336,
      "##onya": 4337,
      "tavsiye": 4338,
      "arab": 4339,
      "##leriniz": 4340,
      "gelin": 4341,
      "##yet": 4342,
      "bet": 4343,
      "##th": 4344,
      "roman": 4345,
      "##sizlik": 4346,
      "##yap": 4347,
      "ıı": 4348,
      "##ekim": 4349,
      "hakkı": 4350,
      "yaşlı": 4351,
      "##ilmiştir": 4352,
      "kum": 4353,
      "##işehir": 4354,
      "kalı": 4355,
      "düştü": 4356,
      "##tıra": 4357,
      "ortalama": 4358,
      "hikay": 4359,
      "##ire": 4360,
      "acil": 4361,
      "##his": 4362,
      "##mesiyle": 4363,
      "##vizyon": 4364,
      "##larındaki": 4365,
      "konum": 4366,
      "eşi": 4367,
      "##ation": 4368,
      "##lüyor": 4369,
      "mesle": 4370,
      "yeter": 4371,
      "rad": 4372,
      "gelenek": 4373,
      "##ersin": 4374,
      "vatandaşlar": 4375,
      "çıkarı": 4376,
      "eşit": 4377,
      "yapmış": 4378,
      "etkil": 4379,
      "piş": 4380,
      "##book": 4381,
      "tanrı": 4382,
      "getirdi": 4383,
      "bulunmaktadır": 4384,
      "yıllarda": 4385,
      "##lamış": 4386,
      "##bin": 4387,
      "fransa": 4388,
      "##ayla": 4389,
      "otomatik": 4390,
      "olmadı": 4391,
      "peş": 4392,
      "açılış": 4393,
      "##tern": 4394,
      "##lemeye": 4395,
      "takdir": 4396,
      "07": 4397,
      "civ": 4398,
      "gençlik": 4399,
      "##emi": 4400,
      "ayar": 4401,
      "köpr": 4402,
      "sağlayan": 4403,
      "kilomet": 4404,
      "gerçekleştirilen": 4405,
      "bilgiye": 4406,
      "34": 4407,
      "sonucunda": 4408,
      "##türk": 4409,
      "diyerek": 4410,
      "##liyle": 4411,
      "del": 4412,
      "baskı": 4413,
      "##´a": 4414,
      "yapım": 4415,
      "hin": 4416,
      "edilir": 4417,
      "diyar": 4418,
      "kulüp": 4419,
      "##muyor": 4420,
      "197": 4421,
      "sö": 4422,
      "olmuştur": 4423,
      "kesim": 4424,
      "##eceğiniz": 4425,
      "avuk": 4426,
      "mül": 4427,
      "analiz": 4428,
      "##ücu": 4429,
      "##diğinde": 4430,
      "sim": 4431,
      "fiyatları": 4432,
      "yerli": 4433,
      "vek": 4434,
      "##resi": 4435,
      "##esiz": 4436,
      "##yonel": 4437,
      "yürüy": 4438,
      "geçiş": 4439,
      "asıl": 4440,
      "##amak": 4441,
      "oyunu": 4442,
      "##iber": 4443,
      "ettiğini": 4444,
      "uğur": 4445,
      "vergi": 4446,
      "06": 4447,
      "nedir": 4448,
      "##ard": 4449,
      "piyasa": 4450,
      "bon": 4451,
      "yapılır": 4452,
      "arası": 4453,
      "##umak": 4454,
      "diren": 4455,
      "##ıza": 4456,
      "tiyat": 4457,
      "katılan": 4458,
      "##antep": 4459,
      "bağımsız": 4460,
      "yarın": 4461,
      "partisi": 4462,
      "haberleri": 4463,
      "tel": 4464,
      "##düğünü": 4465,
      "lar": 4466,
      "33": 4467,
      "tun": 4468,
      "09": 4469,
      "vazgeç": 4470,
      "pop": 4471,
      "##arken": 4472,
      "2013": 4473,
      "##ınızı": 4474,
      "##¦¦": 4475,
      "televizyon": 4476,
      "hus": 4477,
      "if": 4478,
      "yapmaya": 4479,
      "aks": 4480,
      "kişisel": 4481,
      "##ud": 4482,
      "ibrahim": 4483,
      "##mayın": 4484,
      "edeb": 4485,
      "kitab": 4486,
      "profesyonel": 4487,
      "##tt": 4488,
      "otobüs": 4489,
      "##tıldı": 4490,
      "kazandır": 4491,
      "gaziantep": 4492,
      "sizlere": 4493,
      "çor": 4494,
      "akıllı": 4495,
      "söyley": 4496,
      "##emin": 4497,
      "anlamda": 4498,
      "çak": 4499,
      "belirtildi": 4500,
      "diyen": 4501,
      "seni": 4502,
      "ref": 4503,
      "bom": 4504,
      "hakim": 4505,
      "vücu": 4506,
      "hüseyin": 4507,
      "##aza": 4508,
      "herkesin": 4509,
      "##anlar": 4510,
      "##ham": 4511,
      "örneğin": 4512,
      "##lakalı": 4513,
      "çocukların": 4514,
      "istiyoruz": 4515,
      "##ciler": 4516,
      "ömer": 4517,
      "ted": 4518,
      "sip": 4519,
      "buraya": 4520,
      "##hi": 4521,
      "kamera": 4522,
      "##latı": 4523,
      "izley": 4524,
      "alıp": 4525,
      "itfa": 4526,
      "iha": 4527,
      "bakış": 4528,
      "tiyatro": 4529,
      "gitti": 4530,
      "lüt": 4531,
      "##lerimizin": 4532,
      "##yım": 4533,
      "esc": 4534,
      "tatlı": 4535,
      "##ğimiz": 4536,
      "düzenleme": 4537,
      "##üldü": 4538,
      "birden": 4539,
      "kavram": 4540,
      "araba": 4541,
      "cer": 4542,
      "##udi": 4543,
      "birisi": 4544,
      "##cının": 4545,
      "umut": 4546,
      "inşallah": 4547,
      "kürt": 4548,
      "ölü": 4549,
      "okun": 4550,
      "bugüne": 4551,
      "##erken": 4552,
      "##memiz": 4553,
      "standart": 4554,
      "kayded": 4555,
      "bahis": 4556,
      "durdur": 4557,
      "duruş": 4558,
      "edip": 4559,
      "kesinlikle": 4560,
      "kop": 4561,
      "##mesinde": 4562,
      "genellikle": 4563,
      "soğuk": 4564,
      "etraf": 4565,
      "sebeb": 4566,
      "##çiler": 4567,
      "fen": 4568,
      "yasak": 4569,
      "##say": 4570,
      "kök": 4571,
      "sta": 4572,
      "##ever": 4573,
      "odak": 4574,
      "kendilerine": 4575,
      "nüfus": 4576,
      "mhp": 4577,
      "##land": 4578,
      "zorun": 4579,
      "##urken": 4580,
      "soruşturma": 4581,
      "dep": 4582,
      "kaçak": 4583,
      "olumlu": 4584,
      "binlerce": 4585,
      "mahkeme": 4586,
      "400": 4587,
      "yeme": 4588,
      "taşıma": 4589,
      "escort": 4590,
      "ameliy": 4591,
      "sakin": 4592,
      "yönetme": 4593,
      "peki": 4594,
      "içerik": 4595,
      "yü": 4596,
      "##dip": 4597,
      "##lerdi": 4598,
      "rakam": 4599,
      "##dikten": 4600,
      "köp": 4601,
      "iktidar": 4602,
      "paşa": 4603,
      "üyeleri": 4604,
      "tren": 4605,
      "ihti": 4606,
      "bölgesi": 4607,
      "##car": 4608,
      "##ahat": 4609,
      "biçimde": 4610,
      "güvenli": 4611,
      "seviye": 4612,
      "yang": 4613,
      "aşırı": 4614,
      "##mail": 4615,
      "zih": 4616,
      "konser": 4617,
      "##ınıza": 4618,
      "neler": 4619,
      "tehdit": 4620,
      "##iyer": 4621,
      "##bakır": 4622,
      "değerlendirme": 4623,
      "##mara": 4624,
      "car": 4625,
      "##ura": 4626,
      "##des": 4627,
      "biliyor": 4628,
      "antren": 4629,
      "öncelikle": 4630,
      "alım": 4631,
      "##lenmiş": 4632,
      "##ağı": 4633,
      "face": 4634,
      "##rom": 4635,
      "bün": 4636,
      "bec": 4637,
      "##ğının": 4638,
      "endek": 4639,
      "başlangı": 4640,
      "sigorta": 4641,
      "sorunu": 4642,
      "bask": 4643,
      "gizli": 4644,
      "süley": 4645,
      "düşman": 4646,
      "dij": 4647,
      "bilgileri": 4648,
      "##lardaki": 4649,
      "çıkıyor": 4650,
      "##ılıyor": 4651,
      "##arım": 4652,
      "##ner": 4653,
      "oğlu": 4654,
      "##ınma": 4655,
      "##qu": 4656,
      "ticari": 4657,
      "buy": 4658,
      "üretic": 4659,
      "##zet": 4660,
      "hepsi": 4661,
      "##ındır": 4662,
      "kişilik": 4663,
      "tepki": 4664,
      "üstün": 4665,
      "##riyet": 4666,
      "elbet": 4667,
      "diyarbakır": 4668,
      "istedi": 4669,
      "yaşıyor": 4670,
      "şeker": 4671,
      "ligi": 4672,
      "şaş": 4673,
      "eğlence": 4674,
      "ndan": 4675,
      "girdi": 4676,
      "##maş": 4677,
      "seçenek": 4678,
      "##nam": 4679,
      "farkında": 4680,
      "##daşı": 4681,
      "ade": 4682,
      "uyan": 4683,
      "birim": 4684,
      "##ise": 4685,
      "fel": 4686,
      "##ogle": 4687,
      "kapas": 4688,
      "##süz": 4689,
      "kocaeli": 4690,
      "müdürlüğ": 4691,
      "##iği": 4692,
      "makin": 4693,
      "paket": 4694,
      "tane": 4695,
      "gücü": 4696,
      "##tifak": 4697,
      "basit": 4698,
      "##fat": 4699,
      "firmaları": 4700,
      "düşünüyor": 4701,
      "sanki": 4702,
      "##larınızı": 4703,
      "ide": 4704,
      "kale": 4705,
      "mısır": 4706,
      "süren": 4707,
      "bilinen": 4708,
      "süleyman": 4709,
      "ölçü": 4710,
      "##lav": 4711,
      "etmesi": 4712,
      "dünyaya": 4713,
      "##lıkları": 4714,
      "taraftar": 4715,
      "denetim": 4716,
      "serg": 4717,
      "şahin": 4718,
      "##lığıyla": 4719,
      "##ruk": 4720,
      "sk": 4721,
      "hz": 4722,
      "uyuştur": 4723,
      "##seniz": 4724,
      "##tığımız": 4725,
      "saray": 4726,
      "##ああああ": 4727,
      "selçuk": 4728,
      "##ata": 4729,
      "usta": 4730,
      "önümüzdeki": 4731,
      "mini": 4732,
      "zev": 4733,
      "kadının": 4734,
      "196": 4735,
      "dijital": 4736,
      "misaf": 4737,
      "##masın": 4738,
      "çaba": 4739,
      "rest": 4740,
      "##sem": 4741,
      "cinsel": 4742,
      "koor": 4743,
      "giderek": 4744,
      "02": 4745,
      "##köy": 4746,
      "alk": 4747,
      "bilir": 4748,
      "ima": 4749,
      "cenaz": 4750,
      "seyir": 4751,
      "suyu": 4752,
      "##he": 4753,
      "##lerim": 4754,
      "##10": 4755,
      "##anet": 4756,
      "yaygın": 4757,
      "olmasını": 4758,
      "almış": 4759,
      "google": 4760,
      "ism": 4761,
      "##üstü": 4762,
      "##fı": 4763,
      "2012": 4764,
      "çanak": 4765,
      "müşteri": 4766,
      "konuşan": 4767,
      "hata": 4768,
      "##ht": 4769,
      "sanatçı": 4770,
      "edilmiş": 4771,
      "##mel": 4772,
      "kör": 4773,
      "##har": 4774,
      "makine": 4775,
      "ittifak": 4776,
      "##no": 4777,
      "##ımızı": 4778,
      "ülkede": 4779,
      "##´nde": 4780,
      "metin": 4781,
      "##ilip": 4782,
      "ır": 4783,
      "sivas": 4784,
      "hali": 4785,
      "önlem": 4786,
      "olmasına": 4787,
      "tit": 4788,
      "üzerindeki": 4789,
      "sporcu": 4790,
      "##isiyle": 4791,
      "ortadan": 4792,
      "ihtiyac": 4793,
      "bölgesinde": 4794,
      "##usunu": 4795,
      "nden": 4796,
      "grub": 4797,
      "itfaiye": 4798,
      "çalışması": 4799,
      "lez": 4800,
      "kahv": 4801,
      "erzurum": 4802,
      "muhammed": 4803,
      "alb": 4804,
      "olası": 4805,
      "##ment": 4806,
      "##ator": 4807,
      "##ij": 4808,
      "bis": 4809,
      "lir": 4810,
      "##lanmıştır": 4811,
      "kanı": 4812,
      "demokrasi": 4813,
      "gu": 4814,
      "toplumsal": 4815,
      "##ith": 4816,
      "kâ": 4817,
      "##list": 4818,
      "mersin": 4819,
      "kullanarak": 4820,
      "##maktan": 4821,
      "zayı": 4822,
      "neredeyse": 4823,
      "zeytin": 4824,
      "onur": 4825,
      "verecek": 4826,
      "38": 4827,
      "cumhuriyeti": 4828,
      "##ding": 4829,
      "üs": 4830,
      "ilişkiler": 4831,
      "##kur": 4832,
      "boğaz": 4833,
      "##bal": 4834,
      "daire": 4835,
      "was": 4836,
      "##ımda": 4837,
      "zayıf": 4838,
      "##layıcı": 4839,
      "tarz": 4840,
      "tedbir": 4841,
      "##ond": 4842,
      "##memek": 4843,
      "büny": 4844,
      "attı": 4845,
      "rahatsız": 4846,
      "uyuşturucu": 4847,
      "ediliyor": 4848,
      "##paşa": 4849,
      "işçi": 4850,
      "heyecan": 4851,
      "maçı": 4852,
      "jap": 4853,
      "##düz": 4854,
      "300": 4855,
      "maden": 4856,
      "ingilizce": 4857,
      "yoktu": 4858,
      "koc": 4859,
      "dışişleri": 4860,
      "##day": 4861,
      "silahlı": 4862,
      "altyap": 4863,
      "kilometre": 4864,
      "dokun": 4865,
      "duyg": 4866,
      "##eci": 4867,
      "##iner": 4868,
      "mimar": 4869,
      "kriz": 4870,
      "ısı": 4871,
      "şer": 4872,
      "misafir": 4873,
      "kulübü": 4874,
      "kadınların": 4875,
      "##arya": 4876,
      "yalan": 4877,
      "facebook": 4878,
      "mezar": 4879,
      "##ersiz": 4880,
      "##yüz": 4881,
      "nitelik": 4882,
      "zir": 4883,
      "çerçevesinde": 4884,
      "turist": 4885,
      "doğrult": 4886,
      "##uyordu": 4887,
      "##landa": 4888,
      "##liğinin": 4889,
      "kurulan": 4890,
      "edebil": 4891,
      "##ıyoruz": 4892,
      "bulut": 4893,
      "rü": 4894,
      "##arlı": 4895,
      "taşıyan": 4896,
      "yatak": 4897,
      "##imizde": 4898,
      "dam": 4899,
      "03": 4900,
      "##bey": 4901,
      "çab": 4902,
      "kullandığı": 4903,
      "##ade": 4904,
      "hızla": 4905,
      "##leyerek": 4906,
      "ederim": 4907,
      "##uç": 4908,
      "rüz": 4909,
      "##cağına": 4910,
      "por": 4911,
      "hürriyet": 4912,
      "fransız": 4913,
      "final": 4914,
      "##iyorlar": 4915,
      "dosya": 4916,
      "37": 4917,
      "avan": 4918,
      "koru": 4919,
      "küresel": 4920,
      "##lili": 4921,
      "adını": 4922,
      "akdeniz": 4923,
      "nün": 4924,
      "söylüyor": 4925,
      "süreci": 4926,
      "kayıp": 4927,
      "##lerinizi": 4928,
      "kayseri": 4929,
      "##dun": 4930,
      "##ze": 4931,
      "##lerindeki": 4932,
      "dahi": 4933,
      "seyahat": 4934,
      "sözleşme": 4935,
      "keyif": 4936,
      "##tacak": 4937,
      "blo": 4938,
      "boya": 4939,
      "mün": 4940,
      "ekibi": 4941,
      "yerini": 4942,
      "hastane": 4943,
      "kazandı": 4944,
      "sorumluluk": 4945,
      "çoğun": 4946,
      "şans": 4947,
      "pe": 4948,
      "mir": 4949,
      "doğrudan": 4950,
      "lin": 4951,
      "##ýn": 4952,
      "rab": 4953,
      "çeki": 4954,
      "petrol": 4955,
      "dua": 4956,
      "fo": 4957,
      "hazırlanan": 4958,
      "avukat": 4959,
      "ur": 4960,
      "##maması": 4961,
      "birik": 4962,
      "##ros": 4963,
      "çekti": 4964,
      "öy": 4965,
      "vit": 4966,
      "eskişehir": 4967,
      "##isiz": 4968,
      "yağmur": 4969,
      "##ple": 4970,
      "##ıma": 4971,
      "söylen": 4972,
      "55": 4973,
      "hapis": 4974,
      "##yi": 4975,
      "anlatan": 4976,
      "gelmiş": 4977,
      "vakit": 4978,
      "taban": 4979,
      "elbette": 4980,
      "makam": 4981,
      "dip": 4982,
      "kapan": 4983,
      "babası": 4984,
      "şahıs": 4985,
      "şüpheli": 4986,
      "depo": 4987,
      "etmektedir": 4988,
      "unsur": 4989,
      "işin": 4990,
      "##ry": 4991,
      "desteği": 4992,
      "restor": 4993,
      "gelişme": 4994,
      "karşılık": 4995,
      "öngör": 4996,
      "ec": 4997,
      "kaçır": 4998,
      "sorgu": 4999,
      "olacağını": 5000,
      "kişilerin": 5001,
      "aktif": 5002,
      "yazılım": 5003,
      "online": 5004,
      "sağlar": 5005,
      "arttır": 5006,
      "dosy": 5007,
      "##dil": 5008,
      "##emen": 5009,
      "maz": 5010,
      "temin": 5011,
      "koç": 5012,
      "rez": 5013,
      "meyve": 5014,
      "##kaya": 5015,
      "ayrıntı": 5016,
      "##ğından": 5017,
      "kurumu": 5018,
      "saatlerinde": 5019,
      "##ırım": 5020,
      "##lacağı": 5021,
      "zek": 5022,
      "48": 5023,
      "hoca": 5024,
      "istihdam": 5025,
      "belirtilen": 5026,
      "rast": 5027,
      "yapabil": 5028,
      "kısmı": 5029,
      "##zan": 5030,
      "nedeni": 5031,
      "##mediği": 5032,
      "dakikada": 5033,
      "39": 5034,
      "##meyecek": 5035,
      "sonuna": 5036,
      "##23": 5037,
      "##yaspor": 5038,
      "yaptıkları": 5039,
      "##ğıt": 5040,
      "##iyan": 5041,
      "##üyle": 5042,
      "klas": 5043,
      "kurs": 5044,
      "elektronik": 5045,
      "fiyatı": 5046,
      "##yası": 5047,
      "##ff": 5048,
      "öt": 5049,
      "##enler": 5050,
      "çekil": 5051,
      "2020": 5052,
      "sipar": 5053,
      "ucuz": 5054,
      "##mamış": 5055,
      "ihale": 5056,
      "yit": 5057,
      "halkın": 5058,
      "iyileş": 5059,
      "teşki": 5060,
      "malatya": 5061,
      "değildi": 5062,
      "ca": 5063,
      "ondan": 5064,
      "##ho": 5065,
      "kaybetti": 5066,
      "başlar": 5067,
      "buradan": 5068,
      "ins": 5069,
      "##acağız": 5070,
      "tanış": 5071,
      "ekonomi": 5072,
      "##cil": 5073,
      "krit": 5074,
      "twit": 5075,
      "tablo": 5076,
      "##lerimize": 5077,
      "hanım": 5078,
      "alına": 5079,
      "##dy": 5080,
      "ajansı": 5081,
      "aralarında": 5082,
      "kulak": 5083,
      "mesaf": 5084,
      "##şet": 5085,
      "hayatı": 5086,
      "başlıyor": 5087,
      "arz": 5088,
      "maliyet": 5089,
      "öğrenildi": 5090,
      "##vik": 5091,
      "with": 5092,
      "haberi": 5093,
      "düşen": 5094,
      "düşünüyorum": 5095,
      "kral": 5096,
      "##lerek": 5097,
      "açılan": 5098,
      "yed": 5099,
      "hakları": 5100,
      "##memesi": 5101,
      "gerekmektedir": 5102,
      "emir": 5103,
      "##yer": 5104,
      "hoc": 5105,
      "çanakkale": 5106,
      "olduğumuz": 5107,
      "##ilerden": 5108,
      "tanıtım": 5109,
      "yasal": 5110,
      "vatandaşların": 5111,
      "insanları": 5112,
      "deneyim": 5113,
      "mens": 5114,
      "kendilerini": 5115,
      "etkisi": 5116,
      "doğrultusunda": 5117,
      "konfer": 5118,
      "bebe": 5119,
      "ayk": 5120,
      "##nan": 5121,
      "işler": 5122,
      "##ağa": 5123,
      "##öğ": 5124,
      "##distan": 5125,
      "pren": 5126,
      "genelinde": 5127,
      "2011": 5128,
      "isti": 5129,
      "olduklarını": 5130,
      "mali": 5131,
      "##tuk": 5132,
      "tü": 5133,
      "organizasyon": 5134,
      "konuk": 5135,
      "yürütü": 5136,
      "performans": 5137,
      "kıyı": 5138,
      "pil": 5139,
      "##biliriz": 5140,
      "avantaj": 5141,
      "karab": 5142,
      "##ons": 5143,
      "savaşı": 5144,
      "içindeki": 5145,
      "bodr": 5146,
      "coğraf": 5147,
      "gelişim": 5148,
      "sahne": 5149,
      "aa": 5150,
      "yıllar": 5151,
      "##ılmıştır": 5152,
      "bağış": 5153,
      "44": 5154,
      "buz": 5155,
      "uzat": 5156,
      "##kar": 5157,
      "hit": 5158,
      "yada": 5159,
      "oldukları": 5160,
      "anlattı": 5161,
      "muhab": 5162,
      "ederken": 5163,
      "65": 5164,
      "danışman": 5165,
      "dönemi": 5166,
      "sağlayacak": 5167,
      "rum": 5168,
      "yenil": 5169,
      "şanlı": 5170,
      "bununla": 5171,
      "sağlığı": 5172,
      "by": 5173,
      "sonuçları": 5174,
      "cüm": 5175,
      "değişim": 5176,
      "köpek": 5177,
      "denizli": 5178,
      "aşağıdaki": 5179,
      "bilgilendir": 5180,
      "süresi": 5181,
      "vüc": 5182,
      "şük": 5183,
      "sahil": 5184,
      "bayrak": 5185,
      "dizi": 5186,
      "##leye": 5187,
      "şef": 5188,
      "tı": 5189,
      "yürüyüş": 5190,
      "suy": 5191,
      "bodrum": 5192,
      "selam": 5193,
      "bahse": 5194,
      "ürünler": 5195,
      "wor": 5196,
      "şaşır": 5197,
      "ismail": 5198,
      "mezun": 5199,
      "eli": 5200,
      "doğa": 5201,
      "temizlik": 5202,
      "sahn": 5203,
      "75": 5204,
      "ramaz": 5205,
      "kanser": 5206,
      "##limanı": 5207,
      "die": 5208,
      "devletin": 5209,
      "çey": 5210,
      "kampanya": 5211,
      "##tuğ": 5212,
      "olağan": 5213,
      "qu": 5214,
      "gurur": 5215,
      "kus": 5216,
      "geçerli": 5217,
      "koordin": 5218,
      "istek": 5219,
      "##ıf": 5220,
      "sunuyor": 5221,
      "mür": 5222,
      "##embe": 5223,
      "gerektir": 5224,
      "##cisi": 5225,
      "mükem": 5226,
      "twitter": 5227,
      "##ilebil": 5228,
      "kültürel": 5229,
      "bilinç": 5230,
      "ispan": 5231,
      "vi": 5232,
      "##wn": 5233,
      "cezası": 5234,
      "geçici": 5235,
      "04": 5236,
      "turk": 5237,
      "sipariş": 5238,
      "almaya": 5239,
      "geril": 5240,
      "yüzünden": 5241,
      "##hn": 5242,
      "##ds": 5243,
      "cilt": 5244,
      "est": 5245,
      "yör": 5246,
      "yitir": 5247,
      "lu": 5248,
      "kişiye": 5249,
      "##ıyordu": 5250,
      "gelip": 5251,
      "ış": 5252,
      "sön": 5253,
      "##barı": 5254,
      "havalimanı": 5255,
      "dedim": 5256,
      "önceden": 5257,
      "##cısı": 5258,
      "sch": 5259,
      "harca": 5260,
      "itiraz": 5261,
      "yükse": 5262,
      "lütfen": 5263,
      "usul": 5264,
      "işbirliği": 5265,
      "teşvik": 5266,
      "##espor": 5267,
      "yanına": 5268,
      "ülkemizde": 5269,
      "sağlaya": 5270,
      "gösterdi": 5271,
      "yur": 5272,
      "##maye": 5273,
      "amerikan": 5274,
      "gördü": 5275,
      "bitk": 5276,
      "günün": 5277,
      "kalın": 5278,
      "eh": 5279,
      "ege": 5280,
      "ww": 5281,
      "kitabı": 5282,
      "harit": 5283,
      "finan": 5284,
      "vücut": 5285,
      "##cağınız": 5286,
      "vermiş": 5287,
      "merhaba": 5288,
      "kamuoy": 5289,
      "uçuş": 5290,
      "##ısını": 5291,
      "stat": 5292,
      "ilgilen": 5293,
      "manisa": 5294,
      "##ıldığını": 5295,
      "ep": 5296,
      "dernek": 5297,
      "ihtiyacı": 5298,
      "belirli": 5299,
      "veri": 5300,
      "rej": 5301,
      "konak": 5302,
      "42": 5303,
      "gümüş": 5304,
      "ob": 5305,
      "dönüştür": 5306,
      "pozisyon": 5307,
      "that": 5308,
      "##´e": 5309,
      "##´ye": 5310,
      "öğrencilerin": 5311,
      "bildirdi": 5312,
      "mensup": 5313,
      "toplantısı": 5314,
      "kod": 5315,
      "yapımı": 5316,
      "##usuna": 5317,
      "okuma": 5318,
      "##lata": 5319,
      "inci": 5320,
      "akın": 5321,
      "geleneksel": 5322,
      "hukuki": 5323,
      "##laşıyor": 5324,
      "ameliyat": 5325,
      "kimlik": 5326,
      "##ğinden": 5327,
      "lok": 5328,
      "##nik": 5329,
      "##uluyor": 5330,
      "ramazan": 5331,
      "nefes": 5332,
      "##acağı": 5333,
      "karadeniz": 5334,
      "##stin": 5335,
      "hayırlı": 5336,
      "##ws": 5337,
      "##ron": 5338,
      "beklent": 5339,
      "##yol": 5340,
      "bahçe": 5341,
      "bedel": 5342,
      "algı": 5343,
      "herkese": 5344,
      "##inal": 5345,
      "41": 5346,
      "##rim": 5347,
      "yapılmış": 5348,
      "##tival": 5349,
      "kapasit": 5350,
      "varlık": 5351,
      "birinin": 5352,
      "hassas": 5353,
      "geleceğ": 5354,
      "görülen": 5355,
      "hu": 5356,
      "##inizin": 5357,
      "ira": 5358,
      "okuy": 5359,
      "tb": 5360,
      "##lete": 5361,
      "##tıkları": 5362,
      "edebiyat": 5363,
      "##ity": 5364,
      "yaparken": 5365,
      "wil": 5366,
      "başlayacak": 5367,
      "ismi": 5368,
      "anı": 5369,
      "festival": 5370,
      "düşünc": 5371,
      "işlemleri": 5372,
      "etkilen": 5373,
      "we": 5374,
      "günümüzde": 5375,
      "yağış": 5376,
      "idi": 5377,
      "##gesi": 5378,
      "birer": 5379,
      "komş": 5380,
      "##lâm": 5381,
      "zevk": 5382,
      "düzenli": 5383,
      "evren": 5384,
      "görevi": 5385,
      "köyü": 5386,
      "abdullah": 5387,
      "##dığımız": 5388,
      "takv": 5389,
      "yiye": 5390,
      "vo": 5391,
      "##vel": 5392,
      "win": 5393,
      "anlamına": 5394,
      "sağlam": 5395,
      "özelliği": 5396,
      "çalışmalarını": 5397,
      "finans": 5398,
      "vermeye": 5399,
      "##uyla": 5400,
      "##luluğu": 5401,
      "paylaşım": 5402,
      "göğ": 5403,
      "43": 5404,
      "esn": 5405,
      "çam": 5406,
      "hor": 5407,
      "##yordu": 5408,
      "##dığım": 5409,
      "47": 5410,
      "terk": 5411,
      "ters": 5412,
      "ulaşım": 5413,
      "özen": 5414,
      "##ks": 5415,
      "rektör": 5416,
      "indirim": 5417,
      "##bze": 5418,
      "##öğret": 5419,
      "şub": 5420,
      "##oto": 5421,
      "çıkacak": 5422,
      "fili": 5423,
      "2010": 5424,
      "gördüğ": 5425,
      "kullanımı": 5426,
      "ışı": 5427,
      "eriş": 5428,
      "mükemmel": 5429,
      "dönüşüm": 5430,
      "altern": 5431,
      "emre": 5432,
      "memlek": 5433,
      "karşıya": 5434,
      "##isyen": 5435,
      "uygulaması": 5436,
      "basket": 5437,
      "içeren": 5438,
      "nih": 5439,
      "##miyorum": 5440,
      "gördük": 5441,
      "biy": 5442,
      "au": 5443,
      "harika": 5444,
      "edeceğiz": 5445,
      "görünü": 5446,
      "www": 5447,
      "bende": 5448,
      "havuz": 5449,
      "elb": 5450,
      "bilimsel": 5451,
      "özellikleri": 5452,
      "##mesinden": 5453,
      "##emizde": 5454,
      "ekib": 5455,
      "trabzonspor": 5456,
      "##lerdeki": 5457,
      "##gat": 5458,
      "##ımızda": 5459,
      "gayret": 5460,
      "maddi": 5461,
      "tutar": 5462,
      "verme": 5463,
      "sürüc": 5464,
      "mavi": 5465,
      "servisi": 5466,
      "##so": 5467,
      "açtı": 5468,
      "##ğim": 5469,
      "istediği": 5470,
      "ayakk": 5471,
      "yedi": 5472,
      "alev": 5473,
      "sözc": 5474,
      "tepk": 5475,
      "lev": 5476,
      "nı": 5477,
      "dey": 5478,
      "yönlendir": 5479,
      "derec": 5480,
      "akl": 5481,
      "çocukları": 5482,
      "elinde": 5483,
      "cas": 5484,
      "##rin": 5485,
      "caddesi": 5486,
      "##ulur": 5487,
      "##isinden": 5488,
      "uygulan": 5489,
      "şirketi": 5490,
      "dolaş": 5491,
      "hakan": 5492,
      "asya": 5493,
      "kırık": 5494,
      "km": 5495,
      "muhtar": 5496,
      "sahiptir": 5497,
      "##doğu": 5498,
      "devleti": 5499,
      "sürüyor": 5500,
      "milletvekil": 5501,
      "hücre": 5502,
      "uğraş": 5503,
      "##tılan": 5504,
      "değin": 5505,
      "##ary": 5506,
      "zafer": 5507,
      "sevgi": 5508,
      "adeta": 5509,
      "üstüne": 5510,
      "prens": 5511,
      "enflasyon": 5512,
      "bizler": 5513,
      "##lerken": 5514,
      "olanlar": 5515,
      "##lup": 5516,
      "##stik": 5517,
      "##rag": 5518,
      "gerçe": 5519,
      "##parator": 5520,
      "##ıştır": 5521,
      "tev": 5522,
      "##nak": 5523,
      "kurumsal": 5524,
      "ani": 5525,
      "kimi": 5526,
      "##fe": 5527,
      "sün": 5528,
      "##usuf": 5529,
      "sekret": 5530,
      "karay": 5531,
      "sahib": 5532,
      "##dılar": 5533,
      "kamyon": 5534,
      "itibariyle": 5535,
      "çav": 5536,
      "değeri": 5537,
      "##edim": 5538,
      "##sever": 5539,
      "döndü": 5540,
      "gerekç": 5541,
      "büyüm": 5542,
      "##gah": 5543,
      "kli": 5544,
      "noktada": 5545,
      "##ulmuş": 5546,
      "alternatif": 5547,
      "istediğiniz": 5548,
      "filmi": 5549,
      "gözlem": 5550,
      "##gs": 5551,
      "sinir": 5552,
      "anayasa": 5553,
      "şif": 5554,
      "güzellik": 5555,
      "alınması": 5556,
      "imparator": 5557,
      "sermaye": 5558,
      "##´un": 5559,
      "yusuf": 5560,
      "süs": 5561,
      "renkli": 5562,
      "tarihleri": 5563,
      "adli": 5564,
      "bl": 5565,
      "filistin": 5566,
      "parçası": 5567,
      "46": 5568,
      "geldiğini": 5569,
      "yaşat": 5570,
      "devrim": 5571,
      "##ğla": 5572,
      "kaynağı": 5573,
      "yolda": 5574,
      "##lamanın": 5575,
      "kast": 5576,
      "yaşar": 5577,
      "olanak": 5578,
      "maaş": 5579,
      "kıya": 5580,
      "güçlendir": 5581,
      "buldu": 5582,
      "##landığını": 5583,
      "##ebilecek": 5584,
      "çocuğun": 5585,
      "bence": 5586,
      "tartışma": 5587,
      "biçim": 5588,
      "dilek": 5589,
      "##leyici": 5590,
      "sağlıyor": 5591,
      "anti": 5592,
      "##slan": 5593,
      "niyet": 5594,
      "tanın": 5595,
      "##lımı": 5596,
      "edildiği": 5597,
      "53": 5598,
      "dikkate": 5599,
      "##tanın": 5600,
      "gazetesi": 5601,
      "##we": 5602,
      "##kul": 5603,
      "almaktadır": 5604,
      "anah": 5605,
      "iptal": 5606,
      "protok": 5607,
      "##okul": 5608,
      "yarım": 5609,
      "edilecek": 5610,
      "topra": 5611,
      "mutfak": 5612,
      "dini": 5613,
      "##tiva": 5614,
      "##yu": 5615,
      "anlaşı": 5616,
      "##lıdır": 5617,
      "##ilerle": 5618,
      "mağdur": 5619,
      "eme": 5620,
      "gündeme": 5621,
      "vah": 5622,
      "nev": 5623,
      "emekli": 5624,
      "sigara": 5625,
      "##biyet": 5626,
      "amac": 5627,
      "##ray": 5628,
      "##hat": 5629,
      "korku": 5630,
      "kalma": 5631,
      "atıl": 5632,
      "##ikat": 5633,
      "plakalı": 5634,
      "italya": 5635,
      "detaylı": 5636,
      "kanunu": 5637,
      "altını": 5638,
      "##leşme": 5639,
      "karıştır": 5640,
      "##tah": 5641,
      "##21": 5642,
      "halkı": 5643,
      "şanlıur": 5644,
      "olduğundan": 5645,
      "becer": 5646,
      "ilginç": 5647,
      "sinema": 5648,
      "endü": 5649,
      "sistemleri": 5650,
      "cumartesi": 5651,
      "viz": 5652,
      "darb": 5653,
      "muhaf": 5654,
      "sabit": 5655,
      "##esir": 5656,
      "atık": 5657,
      "üretimi": 5658,
      "##sıyla": 5659,
      "incel": 5660,
      "zorunlu": 5661,
      "maçında": 5662,
      "görme": 5663,
      "donan": 5664,
      "##işi": 5665,
      "festiva": 5666,
      "yararlan": 5667,
      "##daroğlu": 5668,
      "meclisi": 5669,
      "##ülebilir": 5670,
      "##okulu": 5671,
      "##vı": 5672,
      "##ete": 5673,
      "rahmet": 5674,
      "hdp": 5675,
      "bildirildi": 5676,
      "slo": 5677,
      "güvenliği": 5678,
      "nesil": 5679,
      "##hisar": 5680,
      "nik": 5681,
      "bekle": 5682,
      "##kır": 5683,
      "##ore": 5684,
      "posta": 5685,
      "anlama": 5686,
      "sebebiyle": 5687,
      "##stit": 5688,
      "demokratik": 5689,
      "kalem": 5690,
      "suret": 5691,
      "organize": 5692,
      "sus": 5693,
      "##oli": 5694,
      "belirlenen": 5695,
      "islâm": 5696,
      "önemlidir": 5697,
      "yürür": 5698,
      "##eyecek": 5699,
      "gösteriyor": 5700,
      "mic": 5701,
      "sıf": 5702,
      "bıçak": 5703,
      "##anda": 5704,
      "nö": 5705,
      "görsel": 5706,
      "dalga": 5707,
      "kelime": 5708,
      "##gü": 5709,
      "##caktır": 5710,
      "açıklaması": 5711,
      "kısım": 5712,
      "kazanan": 5713,
      "##ğiyle": 5714,
      "doç": 5715,
      "##cılığı": 5716,
      "protokol": 5717,
      "başlangıç": 5718,
      "cumhurbaşkanlığı": 5719,
      "kalit": 5720,
      "tarihli": 5721,
      "araz": 5722,
      "olacağı": 5723,
      "vol": 5724,
      "##ste": 5725,
      "hemş": 5726,
      "sevgil": 5727,
      "mutluluk": 5728,
      "engelli": 5729,
      "yaratı": 5730,
      "oranında": 5731,
      "anlaşma": 5732,
      "kimsenin": 5733,
      "hekim": 5734,
      "##eksiyon": 5735,
      "##ildiğini": 5736,
      "göçmen": 5737,
      "##hone": 5738,
      "##emeyen": 5739,
      "49": 5740,
      "turnu": 5741,
      "bozuk": 5742,
      "ney": 5743,
      "##çisi": 5744,
      "ayrıl": 5745,
      "işlemi": 5746,
      "eklen": 5747,
      "gençler": 5748,
      "dük": 5749,
      "kaynakları": 5750,
      "düğün": 5751,
      "zamanlarda": 5752,
      "##tedir": 5753,
      "kana": 5754,
      "rakip": 5755,
      "öncesinde": 5756,
      "yumur": 5757,
      "54": 5758,
      "yakalandı": 5759,
      "yerden": 5760,
      "yolunda": 5761,
      "##uyorum": 5762,
      "bunlardan": 5763,
      "##ıklı": 5764,
      "##´den": 5765,
      "parmak": 5766,
      "icra": 5767,
      "taleb": 5768,
      "evi": 5769,
      "kaymakam": 5770,
      "##lor": 5771,
      "##uyoruz": 5772,
      "##eceğim": 5773,
      "mese": 5774,
      "imkân": 5775,
      "aziz": 5776,
      "artı": 5777,
      "birbirine": 5778,
      "yenilen": 5779,
      "##rama": 5780,
      "oyunları": 5781,
      "##göl": 5782,
      "oysa": 5783,
      "bulundur": 5784,
      "##öğretim": 5785,
      "gerçekleşen": 5786,
      "fuar": 5787,
      "##´nda": 5788,
      "##beden": 5789,
      "merkezinde": 5790,
      "bilgisi": 5791,
      "##mekten": 5792,
      "editör": 5793,
      "balıkesir": 5794,
      "tim": 5795,
      "iken": 5796,
      "hakem": 5797,
      "##araj": 5798,
      "göm": 5799,
      "potan": 5800,
      "yunanistan": 5801,
      "sıkı": 5802,
      "sik": 5803,
      "masa": 5804,
      "##sinde": 5805,
      "moda": 5806,
      "lab": 5807,
      "etiketler": 5808,
      "##´dan": 5809,
      "##bı": 5810,
      "uyum": 5811,
      "##ât": 5812,
      "valisi": 5813,
      "##ase": 5814,
      "çalıştı": 5815,
      "açıldı": 5816,
      "vic": 5817,
      "köşe": 5818,
      "51": 5819,
      "metrek": 5820,
      "birini": 5821,
      "sessiz": 5822,
      "mahkemesi": 5823,
      "sanık": 5824,
      "bakımından": 5825,
      "bilet": 5826,
      "çavuş": 5827,
      "kavuş": 5828,
      "gidip": 5829,
      "yaşamak": 5830,
      "##ted": 5831,
      "kılıçdaroğlu": 5832,
      "amir": 5833,
      "bez": 5834,
      "fe": 5835,
      "yayınlanan": 5836,
      "idari": 5837,
      "karanlık": 5838,
      "56": 5839,
      "kafa": 5840,
      "yakından": 5841,
      "işgal": 5842,
      "nec": 5843,
      "ajans": 5844,
      "insanı": 5845,
      "üstünde": 5846,
      "iyice": 5847,
      "ran": 5848,
      "harekete": 5849,
      "##lılar": 5850,
      "birbirinden": 5851,
      "##mıza": 5852,
      "sakarya": 5853,
      "rö": 5854,
      "##30": 5855,
      "edinilen": 5856,
      "##erseniz": 5857,
      "vakfı": 5858,
      "yenilik": 5859,
      "diler": 5860,
      "çı": 5861,
      "okulu": 5862,
      "sevin": 5863,
      "bekleniyor": 5864,
      "civarında": 5865,
      "tecrüb": 5866,
      "kütü": 5867,
      "forma": 5868,
      "halı": 5869,
      "şeri": 5870,
      "boyu": 5871,
      "alabil": 5872,
      "52": 5873,
      "şimd": 5874,
      "modelleri": 5875,
      "önde": 5876,
      "##makla": 5877,
      "lit": 5878,
      "neh": 5879,
      "şüphel": 5880,
      "yumuş": 5881,
      "150": 5882,
      "başsa": 5883,
      "##ülmesi": 5884,
      "imkanı": 5885,
      "çetin": 5886,
      "je": 5887,
      "başı": 5888,
      "başlama": 5889,
      "##inizde": 5890,
      "tap": 5891,
      "ülkemizin": 5892,
      "edilmiştir": 5893,
      "ürünü": 5894,
      "yaptığımız": 5895,
      "cumhurbaşkan": 5896,
      "##raz": 5897,
      "lezzet": 5898,
      "şeyin": 5899,
      "şanlıurfa": 5900,
      "demektir": 5901,
      "bazıları": 5902,
      "ekipler": 5903,
      "saniye": 5904,
      "hizmetler": 5905,
      "sorunları": 5906,
      "rekabet": 5907,
      "##lıkta": 5908,
      "ela": 5909,
      "müdaha": 5910,
      "kalır": 5911,
      "bağır": 5912,
      "sizler": 5913,
      "##bulan": 5914,
      "sebebi": 5915,
      "##ell": 5916,
      "##gül": 5917,
      "ikram": 5918,
      "mikro": 5919,
      "##red": 5920,
      "hâlâ": 5921,
      "müşteriler": 5922,
      "##nin": 5923,
      "ağz": 5924,
      "diplo": 5925,
      "##ısına": 5926,
      "cinayet": 5927,
      "aykırı": 5928,
      "birleştir": 5929,
      "düşüş": 5930,
      "##lemesi": 5931,
      "tbmm": 5932,
      "set": 5933,
      "kiralama": 5934,
      "içişleri": 5935,
      "köş": 5936,
      "çök": 5937,
      "fabrik": 5938,
      "evden": 5939,
      "müsab": 5940,
      "hastaneye": 5941,
      "amaçlı": 5942,
      "2009": 5943,
      "##ülmüş": 5944,
      "deng": 5945,
      "##rük": 5946,
      "##ibe": 5947,
      "belgesi": 5948,
      "uzmanı": 5949,
      "akış": 5950,
      "gidiyor": 5951,
      "##asındaki": 5952,
      "türkiye´nin": 5953,
      "lise": 5954,
      "lideri": 5955,
      "uça": 5956,
      "ambulan": 5957,
      "##illa": 5958,
      "##ub": 5959,
      "inc": 5960,
      "yetkili": 5961,
      "yoluyla": 5962,
      "bahset": 5963,
      "vir": 5964,
      "bölgeye": 5965,
      "yapacağı": 5966,
      "yılından": 5967,
      "##ä±": 5968,
      "adamı": 5969,
      "##müyor": 5970,
      "öğle": 5971,
      "kıymet": 5972,
      "güvenilir": 5973,
      "kere": 5974,
      "vurgulayan": 5975,
      "nam": 5976,
      "##ımın": 5977,
      "57": 5978,
      "izlen": 5979,
      "cm": 5980,
      "##und": 5981,
      "yönünde": 5982,
      "yumurta": 5983,
      "las": 5984,
      "kuy": 5985,
      "pi": 5986,
      "lı": 5987,
      "halka": 5988,
      "##olog": 5989,
      "sever": 5990,
      "kızıl": 5991,
      "58": 5992,
      "vakıf": 5993,
      "##pat": 5994,
      "##ograf": 5995,
      "##madığını": 5996,
      "toplumun": 5997,
      "ufak": 5998,
      "nat": 5999,
      "fın": 6000,
      "çocuğu": 6001,
      "düzelt": 6002,
      "ziya": 6003,
      "##uman": 6004,
      "orhan": 6005,
      "afrika": 6006,
      "##pt": 6007,
      "zamanı": 6008,
      "bahçeli": 6009,
      "##emeye": 6010,
      "##çın": 6011,
      "ja": 6012,
      "halen": 6013,
      "düzenlendi": 6014,
      "annesi": 6015,
      "hindistan": 6016,
      "##teşem": 6017,
      "şehrin": 6018,
      "##yoruz": 6019,
      "refer": 6020,
      "##ülük": 6021,
      "##liliği": 6022,
      "lond": 6023,
      "hadi": 6024,
      "vb": 6025,
      "##amik": 6026,
      "kaybol": 6027,
      "kararlı": 6028,
      "türü": 6029,
      "vererek": 6030,
      "##cunun": 6031,
      "2008": 6032,
      "ulaştı": 6033,
      "##emiş": 6034,
      "##bb": 6035,
      "##leyi": 6036,
      "muhteşem": 6037,
      "yapıldığı": 6038,
      "gitmek": 6039,
      "kıyafet": 6040,
      "klasik": 6041,
      "görür": 6042,
      "protest": 6043,
      "##sından": 6044,
      "##uyucu": 6045,
      "evinde": 6046,
      "htt": 6047,
      "cerrah": 6048,
      "olmuştu": 6049,
      "hasar": 6050,
      "##sul": 6051,
      "basketbol": 6052,
      "planı": 6053,
      "##irler": 6054,
      "##iyim": 6055,
      "maddesi": 6056,
      "mesela": 6057,
      "##eyim": 6058,
      "##utu": 6059,
      "rüya": 6060,
      "niteli": 6061,
      "kaybeden": 6062,
      "süreçte": 6063,
      "##ilerinden": 6064,
      "ailesi": 6065,
      "beyin": 6066,
      "xx": 6067,
      "tasarru": 6068,
      "mahm": 6069,
      "##ft": 6070,
      "kalb": 6071,
      "raporu": 6072,
      "birinc": 6073,
      "##cıların": 6074,
      "finansal": 6075,
      "kullanan": 6076,
      "##ceğim": 6077,
      "açıdan": 6078,
      "yıllardır": 6079,
      "felsef": 6080,
      "ekmek": 6081,
      "nu": 6082,
      "##lerince": 6083,
      "lisesi": 6084,
      "maçta": 6085,
      "##tc": 6086,
      "bünyesinde": 6087,
      "##yiz": 6088,
      "##leyecek": 6089,
      "ag": 6090,
      "motos": 6091,
      "sahte": 6092,
      "büyükel": 6093,
      "arkadaşı": 6094,
      "yedek": 6095,
      "ettim": 6096,
      "olmayı": 6097,
      "kra": 6098,
      "tutan": 6099,
      "gelişmeler": 6100,
      "aşı": 6101,
      "##ınızda": 6102,
      "##zat": 6103,
      "mekt": 6104,
      "geçer": 6105,
      "pazartesi": 6106,
      "insanlara": 6107,
      "##´ya": 6108,
      "benzeri": 6109,
      "lük": 6110,
      "dür": 6111,
      "ayakkabı": 6112,
      "albay": 6113,
      "##sit": 6114,
      "katıldığı": 6115,
      "metal": 6116,
      "kaldırıldı": 6117,
      "incelen": 6118,
      "yurtdı": 6119,
      "##ılmasına": 6120,
      "borsa": 6121,
      "acaba": 6122,
      "nakliy": 6123,
      "##ty": 6124,
      "temsilcisi": 6125,
      "elim": 6126,
      "apple": 6127,
      "##ino": 6128,
      "ölçüde": 6129,
      "aracın": 6130,
      "gelerek": 6131,
      "##ılmasını": 6132,
      "verilmesi": 6133,
      "##ükle": 6134,
      "kenar": 6135,
      "gib": 6136,
      "şık": 6137,
      "albüm": 6138,
      "modeli": 6139,
      "müte": 6140,
      "zinc": 6141,
      "##atu": 6142,
      "bm": 6143,
      "beyan": 6144,
      "aley": 6145,
      "##bank": 6146,
      "##kon": 6147,
      "tasarruf": 6148,
      "hissed": 6149,
      "hayran": 6150,
      "enstit": 6151,
      "ri": 6152,
      "fık": 6153,
      "##meyin": 6154,
      "zirv": 6155,
      "##sap": 6156,
      "##ilerde": 6157,
      "okur": 6158,
      "evlen": 6159,
      "ndeki": 6160,
      "##yken": 6161,
      "artan": 6162,
      "##leyin": 6163,
      "meden": 6164,
      "gram": 6165,
      "muhale": 6166,
      "##emek": 6167,
      "mobilya": 6168,
      "kağıt": 6169,
      "sız": 6170,
      "##fik": 6171,
      "uzay": 6172,
      "yapabilir": 6173,
      "ph": 6174,
      "kazada": 6175,
      "tasarımı": 6176,
      "alkol": 6177,
      "idare": 6178,
      "arkadaşlar": 6179,
      "hatt": 6180,
      "pap": 6181,
      "takdirde": 6182,
      "mektup": 6183,
      "baktı": 6184,
      "çuk": 6185,
      "pam": 6186,
      "gereği": 6187,
      "soylu": 6188,
      "andro": 6189,
      "döviz": 6190,
      "##lus": 6191,
      "tank": 6192,
      "##layabil": 6193,
      "arzu": 6194,
      "hi": 6195,
      "gere": 6196,
      "kanıt": 6197,
      "milliyet": 6198,
      "inanç": 6199,
      "##lığından": 6200,
      "sec": 6201,
      "sertif": 6202,
      "telefonu": 6203,
      "kütüp": 6204,
      "yapılıyor": 6205,
      "ilişki": 6206,
      "##tek": 6207,
      "döv": 6208,
      "muğla": 6209,
      "kupası": 6210,
      "194": 6211,
      "##lih": 6212,
      "duruma": 6213,
      "ettiler": 6214,
      "##larken": 6215,
      "##cın": 6216,
      "##âm": 6217,
      "festivali": 6218,
      "devamı": 6219,
      "##eral": 6220,
      "sesi": 6221,
      "tebrik": 6222,
      "büyüme": 6223,
      "mate": 6224,
      "##anıyorum": 6225,
      "üstelik": 6226,
      "zehir": 6227,
      "muhat": 6228,
      "atöl": 6229,
      "play": 6230,
      "##alesef": 6231,
      "##enn": 6232,
      "korumak": 6233,
      "aktiv": 6234,
      "evlilik": 6235,
      "maalesef": 6236,
      "kırk": 6237,
      "##tıklarını": 6238,
      "kendimi": 6239,
      "müst": 6240,
      "radyo": 6241,
      "64": 6242,
      "##tak": 6243,
      "sir": 6244,
      "ul": 6245,
      "##bon": 6246,
      "husus": 6247,
      "yapıyoruz": 6248,
      "dekor": 6249,
      "##int": 6250,
      "##enti": 6251,
      "##dukları": 6252,
      "##ydi": 6253,
      "yavuz": 6254,
      "kore": 6255,
      "niş": 6256,
      "sözleri": 6257,
      "düzenlediği": 6258,
      "evin": 6259,
      "günden": 6260,
      "##giz": 6261,
      "çalışmalarına": 6262,
      "##vanın": 6263,
      "heyet": 6264,
      "##efa": 6265,
      "##oper": 6266,
      "bahar": 6267,
      "##19": 6268,
      "yiyecek": 6269,
      "mesleki": 6270,
      "##leyip": 6271,
      "##şey": 6272,
      "muhtem": 6273,
      "##lenin": 6274,
      "##mıştım": 6275,
      "eğil": 6276,
      "duran": 6277,
      "salonu": 6278,
      "ibn": 6279,
      "zorlu": 6280,
      "59": 6281,
      "##usal": 6282,
      "##lî": 6283,
      "sırt": 6284,
      "güne": 6285,
      "gittik": 6286,
      "ümit": 6287,
      "yayınları": 6288,
      "verg": 6289,
      "koltuk": 6290,
      "##iyel": 6291,
      "gümrük": 6292,
      "rekor": 6293,
      "##likleri": 6294,
      "kartı": 6295,
      "##ick": 6296,
      "ilişkili": 6297,
      "yerlerde": 6298,
      "federasyonu": 6299,
      "alınarak": 6300,
      "lan": 6301,
      "kullanmak": 6302,
      "onunla": 6303,
      "##labilecek": 6304,
      "özgürlük": 6305,
      "kongre": 6306,
      "getirmek": 6307,
      "kilis": 6308,
      "çatı": 6309,
      "yaklaşım": 6310,
      "adamın": 6311,
      "gündüz": 6312,
      "##sıt": 6313,
      "bakanlık": 6314,
      "##lıca": 6315,
      "kalmış": 6316,
      "coşk": 6317,
      "kariyer": 6318,
      "yüce": 6319,
      "popüler": 6320,
      "##duğumuz": 6321,
      "egemen": 6322,
      "olayı": 6323,
      "tedavisi": 6324,
      "bisiklet": 6325,
      "yolculu": 6326,
      "kaydeden": 6327,
      "gerektiği": 6328,
      "başladık": 6329,
      "etmiştir": 6330,
      "uyku": 6331,
      "##´ta": 6332,
      "toplantıda": 6333,
      "hatırla": 6334,
      "süredir": 6335,
      "##ori": 6336,
      "diyet": 6337,
      "hacı": 6338,
      "öf": 6339,
      "salı": 6340,
      "eya": 6341,
      "john": 6342,
      "komisyonu": 6343,
      "besin": 6344,
      "rüzgar": 6345,
      "##übe": 6346,
      "aracılığıyla": 6347,
      "parla": 6348,
      "haklı": 6349,
      "##lacağını": 6350,
      "##ısında": 6351,
      "bireysel": 6352,
      "##sy": 6353,
      "kaçın": 6354,
      "kendisinin": 6355,
      "çöp": 6356,
      "paris": 6357,
      "##sızın": 6358,
      "hatırlat": 6359,
      "aşağıda": 6360,
      "yata": 6361,
      "mağaza": 6362,
      "ven": 6363,
      "sevgili": 6364,
      "altyapı": 6365,
      "android": 6366,
      "##örü": 6367,
      "bilen": 6368,
      "faktör": 6369,
      "fiziksel": 6370,
      "istis": 6371,
      "##laj": 6372,
      "##rist": 6373,
      "##çu": 6374,
      "geliştirme": 6375,
      "##azı": 6376,
      "çalıştır": 6377,
      "çarşam": 6378,
      "##ji": 6379,
      "##soy": 6380,
      "sözü": 6381,
      "##ülüyor": 6382,
      "##balık": 6383,
      "genelde": 6384,
      "imar": 6385,
      "##disi": 6386,
      "görevl": 6387,
      "ortamda": 6388,
      "alanları": 6389,
      "##11": 6390,
      "ilave": 6391,
      "tehlikeli": 6392,
      "kaş": 6393,
      "rehber": 6394,
      "##ırlar": 6395,
      "##gazi": 6396,
      "##don": 6397,
      "konus": 6398,
      "##lari": 6399,
      "ofis": 6400,
      "kalkınma": 6401,
      "##tülü": 6402,
      "manz": 6403,
      "##erv": 6404,
      "fabrika": 6405,
      "hil": 6406,
      "geride": 6407,
      "##ilmektedir": 6408,
      "ves": 6409,
      "pişir": 6410,
      "org": 6411,
      "çıkardı": 6412,
      "motosiklet": 6413,
      "iklim": 6414,
      "yapısı": 6415,
      "tüf": 6416,
      "gözet": 6417,
      "##lent": 6418,
      "99": 6419,
      "mevzu": 6420,
      "dili": 6421,
      "bomba": 6422,
      "ayda": 6423,
      "çıktığı": 6424,
      "##ris": 6425,
      "oynan": 6426,
      "çukur": 6427,
      "yel": 6428,
      "yaşamını": 6429,
      "tipi": 6430,
      "denk": 6431,
      "nem": 6432,
      "kilit": 6433,
      "##mamız": 6434,
      "baraj": 6435,
      "##yacak": 6436,
      "verim": 6437,
      "cins": 6438,
      "çarşamba": 6439,
      "##diven": 6440,
      "yetenek": 6441,
      "yakış": 6442,
      "üm": 6443,
      "kişiyi": 6444,
      "öncelik": 6445,
      "##24": 6446,
      "bölümünde": 6447,
      "aslan": 6448,
      "garan": 6449,
      "görünüm": 6450,
      "toz": 6451,
      "hatay": 6452,
      "bütç": 6453,
      "##ahh": 6454,
      "çıkmış": 6455,
      "öğrencileri": 6456,
      "bütçe": 6457,
      "deri": 6458,
      "antrenman": 6459,
      "kutlu": 6460,
      "buyur": 6461,
      "##mos": 6462,
      "##rid": 6463,
      "antik": 6464,
      "aldım": 6465,
      "bulunur": 6466,
      "dans": 6467,
      "##onun": 6468,
      "##ıldığında": 6469,
      "kıv": 6470,
      "toplantısında": 6471,
      "kahvaltı": 6472,
      "kutsal": 6473,
      "muhalefet": 6474,
      "başak": 6475,
      "##veren": 6476,
      "pol": 6477,
      "uk": 6478,
      "bulunduğunu": 6479,
      "##mamak": 6480,
      "görmüş": 6481,
      "edir": 6482,
      "2000": 6483,
      "yuvar": 6484,
      "marmara": 6485,
      "içinden": 6486,
      "etki": 6487,
      "perş": 6488,
      "had": 6489,
      "muk": 6490,
      "endeksi": 6491,
      "mesele": 6492,
      "195": 6493,
      "taşım": 6494,
      "sonuçlar": 6495,
      "mac": 6496,
      "sıfır": 6497,
      "ihbar": 6498,
      "yürütülen": 6499,
      "hain": 6500,
      "kabil": 6501,
      "gerçekleşti": 6502,
      "cadde": 6503,
      "aklı": 6504,
      "##satı": 6505,
      "başlattı": 6506,
      "##otik": 6507,
      "madal": 6508,
      "günler": 6509,
      "köprü": 6510,
      "##alan": 6511,
      "hollanda": 6512,
      "vis": 6513,
      "beslenme": 6514,
      "evine": 6515,
      "anahtar": 6516,
      "iade": 6517,
      "som": 6518,
      "##kel": 6519,
      "##anız": 6520,
      "kanunun": 6521,
      "sektöründe": 6522,
      "ale": 6523,
      "##diğine": 6524,
      "kanat": 6525,
      "galibiyet": 6526,
      "ağız": 6527,
      "sorunun": 6528,
      "cema": 6529,
      "edebilir": 6530,
      "##ksiyon": 6531,
      "yılının": 6532,
      "ilçesine": 6533,
      "bağımlı": 6534,
      "##kim": 6535,
      "yolculuk": 6536,
      "iba": 6537,
      "katılımı": 6538,
      "yönetmen": 6539,
      "gördüğü": 6540,
      "yolları": 6541,
      "protesto": 6542,
      "##diniz": 6543,
      "##mo": 6544,
      "##abiliyor": 6545,
      "yarışma": 6546,
      "yüküm": 6547,
      "##cin": 6548,
      "roma": 6549,
      "mevsim": 6550,
      "sağlan": 6551,
      "babam": 6552,
      "seks": 6553,
      "seri": 6554,
      "inti": 6555,
      "yaptığını": 6556,
      "disip": 6557,
      "vücud": 6558,
      "##paz": 6559,
      "taraftan": 6560,
      "şirketin": 6561,
      "erkekler": 6562,
      "##itesi": 6563,
      "sof": 6564,
      "zorluk": 6565,
      "tüketic": 6566,
      "##liz": 6567,
      "perşembe": 6568,
      "derg": 6569,
      "##ese": 6570,
      "itha": 6571,
      "##tic": 6572,
      "yüzey": 6573,
      "gerçekleştirildi": 6574,
      "kullanılır": 6575,
      "tablet": 6576,
      "çalışıyoruz": 6577,
      "gerektiğ": 6578,
      "yüzü": 6579,
      "adlandır": 6580,
      "##pg": 6581,
      "direktörü": 6582,
      "olduğunuz": 6583,
      "ceb": 6584,
      "##ug": 6585,
      "sunan": 6586,
      "nez": 6587,
      "verimli": 6588,
      "maruz": 6589,
      "kaps": 6590,
      "alet": 6591,
      "tamamladı": 6592,
      "##lacaktır": 6593,
      "##yasal": 6594,
      "##amin": 6595,
      "alışk": 6596,
      "şunu": 6597,
      "plastik": 6598,
      "kuvvetleri": 6599,
      "istifa": 6600,
      "zamanlar": 6601,
      "bıraktı": 6602,
      "##sey": 6603,
      "göreve": 6604,
      "iphone": 6605,
      "gelişmiş": 6606,
      "##pınar": 6607,
      "milletin": 6608,
      "getirildi": 6609,
      "yüzlerce": 6610,
      "özet": 6611,
      "yazık": 6612,
      "yükselt": 6613,
      "bülent": 6614,
      "york": 6615,
      "netic": 6616,
      "pamuk": 6617,
      "sc": 6618,
      "##ısının": 6619,
      "##lüğe": 6620,
      "sakat": 6621,
      "vade": 6622,
      "otop": 6623,
      "cümle": 6624,
      "arkasında": 6625,
      "fonksiyon": 6626,
      "##emesi": 6627,
      "##jen": 6628,
      "parlak": 6629,
      "nöbet": 6630,
      "bilgilere": 6631,
      "uefa": 6632,
      "cezaev": 6633,
      "##80": 6634,
      "##tımı": 6635,
      "beklenen": 6636,
      "##şi": 6637,
      "post": 6638,
      "bulmak": 6639,
      "##ayacak": 6640,
      "hastalığı": 6641,
      "yıla": 6642,
      "##ona": 6643,
      "metro": 6644,
      "bunlara": 6645,
      "kuran": 6646,
      "##tra": 6647,
      "noktasında": 6648,
      "sanırım": 6649,
      "bulama": 6650,
      "##veç": 6651,
      "konseyi": 6652,
      "alem": 6653,
      "azalt": 6654,
      "özgü": 6655,
      "esnasında": 6656,
      "##akistan": 6657,
      "açıklamalarda": 6658,
      "halil": 6659,
      "çocuklara": 6660,
      "dolarlık": 6661,
      "komşu": 6662,
      "##amıyor": 6663,
      "itibarı": 6664,
      "toh": 6665,
      "##elle": 6666,
      "85": 6667,
      "konuyla": 6668,
      "##yalı": 6669,
      "kalıyor": 6670,
      "rabb": 6671,
      "konferans": 6672,
      "##12": 6673,
      "zamanında": 6674,
      "anlar": 6675,
      "##´nun": 6676,
      "görüyoruz": 6677,
      "alması": 6678,
      "pir": 6679,
      "satışa": 6680,
      "deplas": 6681,
      "damar": 6682,
      "aldık": 6683,
      "gelmesi": 6684,
      "buradaki": 6685,
      "kargo": 6686,
      "abdül": 6687,
      "gördüm": 6688,
      "kahve": 6689,
      "##malarını": 6690,
      "##bas": 6691,
      "komutanı": 6692,
      "trak": 6693,
      "nakliyat": 6694,
      "arş": 6695,
      "istat": 6696,
      "sürpr": 6697,
      "sonsuz": 6698,
      "##ysa": 6699,
      "##lanmak": 6700,
      "67": 6701,
      "gülüm": 6702,
      "fed": 6703,
      "geçirildi": 6704,
      "fan": 6705,
      "durumlarda": 6706,
      "farkı": 6707,
      "defter": 6708,
      "##eğ": 6709,
      "dayalı": 6710,
      "66": 6711,
      "##lıp": 6712,
      "başsav": 6713,
      "noktası": 6714,
      "gerekse": 6715,
      "##iyetini": 6716,
      "##ie": 6717,
      "sürdürüyor": 6718,
      "##liam": 6719,
      "feth": 6720,
      "hayatta": 6721,
      "said": 6722,
      "olmalıdır": 6723,
      "##rü": 6724,
      "hast": 6725,
      "##dığınız": 6726,
      "tanesi": 6727,
      "önder": 6728,
      "tazmin": 6729,
      "bayra": 6730,
      "tepe": 6731,
      "görünce": 6732,
      "tıklayın": 6733,
      "##yaman": 6734,
      "çalıştığı": 6735,
      "komutanlığı": 6736,
      "##lerimi": 6737,
      "komp": 6738,
      "prote": 6739,
      "dikkatli": 6740,
      "2007": 6741,
      "kazanç": 6742,
      "market": 6743,
      "vurguladı": 6744,
      "##larımı": 6745,
      "gösterir": 6746,
      "seven": 6747,
      "turg": 6748,
      "uğr": 6749,
      "##larımızla": 6750,
      "63": 6751,
      "bekleyen": 6752,
      "##ılarak": 6753,
      "numaralı": 6754,
      "##iğe": 6755,
      "bakın": 6756,
      "muay": 6757,
      "rob": 6758,
      "günleri": 6759,
      "##emizin": 6760,
      "95": 6761,
      "söndür": 6762,
      "temas": 6763,
      "hur": 6764,
      "verici": 6765,
      "cesaret": 6766,
      "gecik": 6767,
      "eleman": 6768,
      "250": 6769,
      "deplasman": 6770,
      "çalışmaya": 6771,
      "##dün": 6772,
      "##cere": 6773,
      "açıklandı": 6774,
      "istasyon": 6775,
      "olayın": 6776,
      "ailen": 6777,
      "##ung": 6778,
      "hikâ": 6779,
      "çizg": 6780,
      "mos": 6781,
      "şof": 6782,
      "olmaktan": 6783,
      "arslan": 6784,
      "müdahalesi": 6785,
      "arasına": 6786,
      "yukarıda": 6787,
      "irade": 6788,
      "kimyasal": 6789,
      "mardin": 6790,
      "imamoğlu": 6791,
      "##ilmez": 6792,
      "başkent": 6793,
      "##liyoruz": 6794,
      "##denin": 6795,
      "zan": 6796,
      "erişim": 6797,
      "azer": 6798,
      "mülk": 6799,
      "vizyon": 6800,
      "kalıcı": 6801,
      "yaşandı": 6802,
      "elimiz": 6803,
      "##ph": 6804,
      "kartal": 6805,
      "ödülü": 6806,
      "anlamı": 6807,
      "##mızın": 6808,
      "cennet": 6809,
      "güncelleme": 6810,
      "pazarlama": 6811,
      "uzan": 6812,
      "##stagram": 6813,
      "zemin": 6814,
      "tutul": 6815,
      "komutan": 6816,
      "projenin": 6817,
      "blog": 6818,
      "elini": 6819,
      "tanık": 6820,
      "olamaz": 6821,
      "##elendir": 6822,
      "afyon": 6823,
      "##edi": 6824,
      "kusur": 6825,
      "graf": 6826,
      "sürece": 6827,
      "##teyiz": 6828,
      "ambulans": 6829,
      "şampiyonası": 6830,
      "nükle": 6831,
      "gönüllü": 6832,
      "alama": 6833,
      "çekim": 6834,
      "verilecek": 6835,
      "ikisi": 6836,
      "alındığı": 6837,
      "##ilmesini": 6838,
      "cok": 6839,
      "geldik": 6840,
      "öldü": 6841,
      "##ladığını": 6842,
      "çağır": 6843,
      "eta": 6844,
      "##val": 6845,
      "##ülür": 6846,
      "aşkın": 6847,
      "görevlendir": 6848,
      "ju": 6849,
      "81": 6850,
      "muhabir": 6851,
      "##liğiyle": 6852,
      "kaydedildi": 6853,
      "bölümde": 6854,
      "üstlen": 6855,
      "600": 6856,
      "edirne": 6857,
      "##mediğini": 6858,
      "##eceğimiz": 6859,
      "wo": 6860,
      "ziraat": 6861,
      "##los": 6862,
      "patlama": 6863,
      "omuz": 6864,
      "duyurdu": 6865,
      "ettikleri": 6866,
      "kumaş": 6867,
      "##dınız": 6868,
      "alıcı": 6869,
      "windo": 6870,
      "dikkati": 6871,
      "ahlak": 6872,
      "dosyası": 6873,
      "başını": 6874,
      "konularda": 6875,
      "yetersiz": 6876,
      "atak": 6877,
      "oldum": 6878,
      "kemik": 6879,
      "sho": 6880,
      "teşkilat": 6881,
      "suudi": 6882,
      "dolandır": 6883,
      "oraya": 6884,
      "üstü": 6885,
      "##mon": 6886,
      "##dev": 6887,
      "karşılıklı": 6888,
      "##biy": 6889,
      "geriye": 6890,
      "rezerv": 6891,
      "stratejik": 6892,
      "fı": 6893,
      "##ecik": 6894,
      "##ustur": 6895,
      "birleşik": 6896,
      "ispanya": 6897,
      "öğrencilere": 6898,
      "##ss": 6899,
      "akar": 6900,
      "hamile": 6901,
      "koz": 6902,
      "edebilirsiniz": 6903,
      "gayet": 6904,
      "apart": 6905,
      "##ilmesine": 6906,
      "##che": 6907,
      "ste": 6908,
      "div": 6909,
      "bulan": 6910,
      "karşın": 6911,
      "kolek": 6912,
      "esen": 6913,
      "kolayca": 6914,
      "##ayım": 6915,
      "link": 6916,
      "up": 6917,
      "##likte": 6918,
      "##¦¦¦¦": 6919,
      "unutul": 6920,
      "akademik": 6921,
      "##lesinde": 6922,
      "başkanlık": 6923,
      "karaman": 6924,
      "çekiyor": 6925,
      "belirlendi": 6926,
      "garanti": 6927,
      "demiş": 6928,
      "adliy": 6929,
      "alana": 6930,
      "##ded": 6931,
      "bula": 6932,
      "alanlarda": 6933,
      "bro": 6934,
      "hükümeti": 6935,
      "kesint": 6936,
      "sekiz": 6937,
      "hayatın": 6938,
      "##22": 6939,
      "başkenti": 6940,
      "takımın": 6941,
      "##lit": 6942,
      "tüketim": 6943,
      "kullanma": 6944,
      "gürül": 6945,
      "anında": 6946,
      "kaydı": 6947,
      "yaşama": 6948,
      "isteme": 6949,
      "sığın": 6950,
      "devre": 6951,
      "istatistik": 6952,
      "salih": 6953,
      "cey": 6954,
      "şö": 6955,
      "panel": 6956,
      "##alist": 6957,
      "##ima": 6958,
      "helik": 6959,
      "vefat": 6960,
      "##asız": 6961,
      "londra": 6962,
      "seçene": 6963,
      "köylü": 6964,
      "##tadır": 6965,
      "bulunmak": 6966,
      "alanlar": 6967,
      "##sör": 6968,
      "çeyrek": 6969,
      "##ğiniz": 6970,
      "dönemin": 6971,
      "##zığ": 6972,
      "und": 6973,
      "##opter": 6974,
      "bölgenin": 6975,
      "teor": 6976,
      "görevli": 6977,
      "kaldığı": 6978,
      "japonya": 6979,
      "haberlerin": 6980,
      "payı": 6981,
      "oluştu": 6982,
      "star": 6983,
      "pratik": 6984,
      "diliyorum": 6985,
      "düzeyde": 6986,
      "##ight": 6987,
      "dairesi": 6988,
      "##balı": 6989,
      "eyalet": 6990,
      "sınırlı": 6991,
      "gelince": 6992,
      "akra": 6993,
      "yir": 6994,
      "##mis": 6995,
      "##âb": 6996,
      "eşlik": 6997,
      "##tl": 6998,
      "##lemiş": 6999,
      "yaşay": 7000,
      "##limp": 7001,
      "gününde": 7002,
      "matematik": 7003,
      "derecede": 7004,
      "numar": 7005,
      "şok": 7006,
      "gidecek": 7007,
      "my": 7008,
      "sunulan": 7009,
      "medyada": 7010,
      "inf": 7011,
      "61": 7012,
      "ilah": 7013,
      "yayla": 7014,
      "##tıcı": 7015,
      "nükleer": 7016,
      "##lamaktadır": 7017,
      "dışına": 7018,
      "şehri": 7019,
      "log": 7020,
      "toplan": 7021,
      "ülkeler": 7022,
      "hip": 7023,
      "efendi": 7024,
      "ım": 7025,
      "yerinden": 7026,
      "vadeli": 7027,
      "gösterdiği": 7028,
      "kurtuluş": 7029,
      "fas": 7030,
      "##unç": 7031,
      "çıkıp": 7032,
      "yapıp": 7033,
      "ihraç": 7034,
      "##tıktan": 7035,
      "sektörü": 7036,
      "##tük": 7037,
      "##luluğ": 7038,
      "azından": 7039,
      "şubesi": 7040,
      "##ああああああああ": 7041,
      "yapması": 7042,
      "ihtimal": 7043,
      "burası": 7044,
      "hükm": 7045,
      "teker": 7046,
      "tanıt": 7047,
      "çıkart": 7048,
      "düzenlenecek": 7049,
      "ein": 7050,
      "labor": 7051,
      "edilerek": 7052,
      "olacağız": 7053,
      "##bel": 7054,
      "yapacağız": 7055,
      "##şak": 7056,
      "kitle": 7057,
      "keyifli": 7058,
      "elazığ": 7059,
      "kk": 7060,
      "sergil": 7061,
      "endüstr": 7062,
      "ırk": 7063,
      "suretiyle": 7064,
      "##usuz": 7065,
      "ortada": 7066,
      "bran": 7067,
      "##ned": 7068,
      "ilim": 7069,
      "##manızı": 7070,
      "##lıktan": 7071,
      "denize": 7072,
      "olduğum": 7073,
      "windows": 7074,
      "arı": 7075,
      "güreş": 7076,
      "holding": 7077,
      "istediğini": 7078,
      "çiğ": 7079,
      "konuya": 7080,
      "türkiy": 7081,
      "erdem": 7082,
      "kavga": 7083,
      "hadis": 7084,
      "##lib": 7085,
      "barındır": 7086,
      "günah": 7087,
      "trt": 7088,
      "klima": 7089,
      "söylemek": 7090,
      "ideal": 7091,
      "olmaması": 7092,
      "bugünkü": 7093,
      "sunul": 7094,
      "##mu": 7095,
      "##mece": 7096,
      "operasyonda": 7097,
      "sürecinde": 7098,
      "benden": 7099,
      "duyarlı": 7100,
      "ulaşı": 7101,
      "##mesin": 7102,
      "tac": 7103,
      "arasından": 7104,
      "kısıt": 7105,
      "seçimi": 7106,
      "sabır": 7107,
      "ermeni": 7108,
      "bizlere": 7109,
      "oynanan": 7110,
      "##yolu": 7111,
      "başlaya": 7112,
      "dedik": 7113,
      "tad": 7114,
      "##umuzun": 7115,
      "ekrem": 7116,
      "cor": 7117,
      "tey": 7118,
      "##masyon": 7119,
      "sorunlar": 7120,
      "yaralanan": 7121,
      "karma": 7122,
      "anket": 7123,
      "ikili": 7124,
      "yaptım": 7125,
      "pilot": 7126,
      "kula": 7127,
      "çalışmak": 7128,
      "psikolojik": 7129,
      "##şkın": 7130,
      "193": 7131,
      "col": 7132,
      "ikt": 7133,
      "##lıyoruz": 7134,
      "##feri": 7135,
      "oğuz": 7136,
      "hazine": 7137,
      "sayede": 7138,
      "ömür": 7139,
      "bulu": 7140,
      "##ıştı": 7141,
      "ilke": 7142,
      "##siyel": 7143,
      "göğüs": 7144,
      "ital": 7145,
      "memleket": 7146,
      "gor": 7147,
      "mete": 7148,
      "yılları": 7149,
      "apos": 7150,
      "sıvı": 7151,
      "helikopter": 7152,
      "düzce": 7153,
      "sıralarında": 7154,
      "elinden": 7155,
      "gözden": 7156,
      "uygulamaları": 7157,
      "buluştur": 7158,
      "edilebilir": 7159,
      "yerler": 7160,
      "bekliyoruz": 7161,
      "ayakta": 7162,
      "from": 7163,
      "yükseldi": 7164,
      "##usunun": 7165,
      "##ilirken": 7166,
      "##acağını": 7167,
      "##iki": 7168,
      "güler": 7169,
      "##dere": 7170,
      "uzaklaş": 7171,
      "yaptırım": 7172,
      "öm": 7173,
      "görevini": 7174,
      "iğ": 7175,
      "sayısının": 7176,
      "ahş": 7177,
      "##dika": 7178,
      "faydalı": 7179,
      "sunum": 7180,
      "yalçın": 7181,
      "öztürk": 7182,
      "gerekçesiyle": 7183,
      "sandal": 7184,
      "delik": 7185,
      "başladığı": 7186,
      "gam": 7187,
      "ras": 7188,
      "oradan": 7189,
      "##25": 7190,
      "##ıı": 7191,
      "bulunması": 7192,
      "iyileştir": 7193,
      "selim": 7194,
      "hastanede": 7195,
      "cenaze": 7196,
      "##diy": 7197,
      "gerçekleştirdi": 7198,
      "eşliğinde": 7199,
      "##iyorsunuz": 7200,
      "çıkarak": 7201,
      "adr": 7202,
      "##rul": 7203,
      "alınacak": 7204,
      "görünüyor": 7205,
      "kerim": 7206,
      "yönde": 7207,
      "68": 7208,
      "tıpkı": 7209,
      "ilerle": 7210,
      "arda": 7211,
      "önemi": 7212,
      "hastalıkları": 7213,
      "sürpriz": 7214,
      "karşısına": 7215,
      "bileş": 7216,
      "olağanüstü": 7217,
      "##fez": 7218,
      "süreli": 7219,
      "savcı": 7220,
      "kırsal": 7221,
      "cemaat": 7222,
      "gemi": 7223,
      "##yurt": 7224,
      "hel": 7225,
      "kred": 7226,
      "şeye": 7227,
      "şere": 7228,
      "cengiz": 7229,
      "şeb": 7230,
      "devir": 7231,
      "##oyu": 7232,
      "plaj": 7233,
      "sandık": 7234,
      "adıyaman": 7235,
      "but": 7236,
      "yunus": 7237,
      "##sh": 7238,
      "fındık": 7239,
      "##´ne": 7240,
      "76": 7241,
      "##emize": 7242,
      "kiralık": 7243,
      "yaprak": 7244,
      "##tılması": 7245,
      "mesajı": 7246,
      "69": 7247,
      "##sis": 7248,
      "##ebilmek": 7249,
      "rev": 7250,
      "şeyh": 7251,
      "##lamayı": 7252,
      "##ges": 7253,
      "zincir": 7254,
      "siyasal": 7255,
      "aldığını": 7256,
      "inanıyorum": 7257,
      "çekir": 7258,
      "vs": 7259,
      "##arlar": 7260,
      "toplamda": 7261,
      "dır": 7262,
      "açıklamaya": 7263,
      "efsan": 7264,
      "olmaktadır": 7265,
      "endiş": 7266,
      "bulunduğ": 7267,
      "hot": 7268,
      "##mali": 7269,
      "meydanı": 7270,
      "çatış": 7271,
      "ürünlerin": 7272,
      "arkadaşları": 7273,
      "başlıklı": 7274,
      "altındaki": 7275,
      "##eceğine": 7276,
      "perde": 7277,
      "ful": 7278,
      "çağı": 7279,
      "derken": 7280,
      "##use": 7281,
      "uygulanan": 7282,
      "gönderildi": 7283,
      "terim": 7284,
      "sm": 7285,
      "sözlerine": 7286,
      "##leniyor": 7287,
      "uyumlu": 7288,
      "biridir": 7289,
      "bacak": 7290,
      "oğl": 7291,
      "##varı": 7292,
      "geçirdi": 7293,
      "konuyu": 7294,
      "talimat": 7295,
      "bos": 7296,
      "getirdiği": 7297,
      "olimp": 7298,
      "italyan": 7299,
      "itibarıyla": 7300,
      "çekmek": 7301,
      "laboratu": 7302,
      "##liyeti": 7303,
      "skor": 7304,
      "##ladım": 7305,
      "falan": 7306,
      "##duğum": 7307,
      "başlamış": 7308,
      "belediyespor": 7309,
      "sy": 7310,
      "imz": 7311,
      "77": 7312,
      "##lanabilir": 7313,
      "112": 7314,
      "vası": 7315,
      "biliyorum": 7316,
      "müzak": 7317,
      "tutuklandı": 7318,
      "fırsatı": 7319,
      "kapsamda": 7320,
      "sordu": 7321,
      "##çılık": 7322,
      "şekliyle": 7323,
      "katılımcı": 7324,
      "dig": 7325,
      "liv": 7326,
      "haftada": 7327,
      "kıyas": 7328,
      "dönüm": 7329,
      "müf": 7330,
      "hareketi": 7331,
      "vicdan": 7332,
      "yerleşim": 7333,
      "iman": 7334,
      "ittifakı": 7335,
      "raf": 7336,
      "siteleri": 7337,
      "tuş": 7338,
      "imalat": 7339,
      "##jan": 7340,
      "yorgun": 7341,
      "kapsamlı": 7342,
      "gecesi": 7343,
      "görebil": 7344,
      "##suzluk": 7345,
      "##all": 7346,
      "topu": 7347,
      "maçın": 7348,
      "##iko": 7349,
      "düşünür": 7350,
      "açan": 7351,
      "merkezine": 7352,
      "##umuzu": 7353,
      "sürük": 7354,
      "bakır": 7355,
      "ust": 7356,
      "parkı": 7357,
      "kurş": 7358,
      "arabistan": 7359,
      "73": 7360,
      "şair": 7361,
      "lak": 7362,
      "kep": 7363,
      "ibadet": 7364,
      "durumun": 7365,
      "saati": 7366,
      "liste": 7367,
      "##lel": 7368,
      "eren": 7369,
      "bölgesel": 7370,
      "ahşap": 7371,
      "pom": 7372,
      "##tikten": 7373,
      "##tılar": 7374,
      "##ai": 7375,
      "arttı": 7376,
      "haya": 7377,
      "eğlenceli": 7378,
      "##eke": 7379,
      "kalabalık": 7380,
      "geçiyor": 7381,
      "##ane": 7382,
      "olduğunun": 7383,
      "##´na": 7384,
      "##lenir": 7385,
      "hizmete": 7386,
      "glo": 7387,
      "çekici": 7388,
      "##elal": 7389,
      "##hing": 7390,
      "araçları": 7391,
      "yöntemi": 7392,
      "tecrübe": 7393,
      "ulaştır": 7394,
      "aran": 7395,
      "74": 7396,
      "hattı": 7397,
      "##esince": 7398,
      "ülkeye": 7399,
      "isterseniz": 7400,
      "biliyoruz": 7401,
      "kemer": 7402,
      "ulaşabilirsiniz": 7403,
      "manevi": 7404,
      "##´s": 7405,
      "oluşturan": 7406,
      "bizde": 7407,
      "idaresi": 7408,
      "laf": 7409,
      "##isindeki": 7410,
      "##ami": 7411,
      "ast": 7412,
      "haberin": 7413,
      "üncü": 7414,
      "##gur": 7415,
      "riv": 7416,
      "müj": 7417,
      "taki": 7418,
      "çır": 7419,
      "fırat": 7420,
      "##illi": 7421,
      "kadir": 7422,
      "##dî": 7423,
      "##lamıştı": 7424,
      "##ciğer": 7425,
      "##irt": 7426,
      "adıyla": 7427,
      "istikrar": 7428,
      "##uf": 7429,
      "olunca": 7430,
      "merdiven": 7431,
      "##abilmek": 7432,
      "hek": 7433,
      "ücreti": 7434,
      "geleceği": 7435,
      "personeli": 7436,
      "kazı": 7437,
      "what": 7438,
      "enteg": 7439,
      "2006": 7440,
      "oyunun": 7441,
      "yönel": 7442,
      "harf": 7443,
      "##yü": 7444,
      "##15": 7445,
      "nere": 7446,
      "sisteminin": 7447,
      "##lıyorum": 7448,
      "sebze": 7449,
      "teşk": 7450,
      "minik": 7451,
      "üretilen": 7452,
      "açma": 7453,
      "##ald": 7454,
      "açıkça": 7455,
      "arşiv": 7456,
      "##tip": 7457,
      "olsay": 7458,
      "kavg": 7459,
      "alımı": 7460,
      "bolu": 7461,
      "sitesinden": 7462,
      "olmanın": 7463,
      "pencere": 7464,
      "##ende": 7465,
      "gayrim": 7466,
      "işyer": 7467,
      "##içi": 7468,
      "##menizi": 7469,
      "fela": 7470,
      "air": 7471,
      "aylarında": 7472,
      "disiplin": 7473,
      "yükseliş": 7474,
      "haş": 7475,
      "paha": 7476,
      "sinan": 7477,
      "kardeşi": 7478,
      "fit": 7479,
      "bölün": 7480,
      "seçilen": 7481,
      "ayşe": 7482,
      "alınır": 7483,
      "##´i": 7484,
      "afgan": 7485,
      "projeleri": 7486,
      "vekili": 7487,
      "taze": 7488,
      "bizzat": 7489,
      "şartları": 7490,
      "##imizden": 7491,
      "editor": 7492,
      "mahmut": 7493,
      "aktaran": 7494,
      "işlev": 7495,
      "yumuşak": 7496,
      "##lamaları": 7497,
      "120": 7498,
      "satışı": 7499,
      "##ılmaktadır": 7500,
      "devreye": 7501,
      "geldiğinde": 7502,
      "olayla": 7503,
      "etmişti": 7504,
      "##mini": 7505,
      "alınmıştır": 7506,
      "fırt": 7507,
      "makinesi": 7508,
      "tutuklu": 7509,
      "sürdürdü": 7510,
      "dörd": 7511,
      "zanlı": 7512,
      "alırken": 7513,
      "felaket": 7514,
      "kapak": 7515,
      "miktarda": 7516,
      "off": 7517,
      "şeref": 7518,
      "##amızda": 7519,
      "çil": 7520,
      "söyleye": 7521,
      "çağdaş": 7522,
      "potansiyel": 7523,
      "nci": 7524,
      "aksine": 7525,
      "##medik": 7526,
      "##anak": 7527,
      "emlak": 7528,
      "tef": 7529,
      "kendileri": 7530,
      "olmaları": 7531,
      "yerleri": 7532,
      "alabilirsiniz": 7533,
      "eman": 7534,
      "müzesi": 7535,
      "##uzu": 7536,
      "yazdı": 7537,
      "başarılar": 7538,
      "inanıyor": 7539,
      "mevki": 7540,
      "verilir": 7541,
      "projeler": 7542,
      "bül": 7543,
      "sözlerini": 7544,
      "hesabından": 7545,
      "fre": 7546,
      "şartı": 7547,
      "firması": 7548,
      "niye": 7549,
      "ihlal": 7550,
      "şeyleri": 7551,
      "attığı": 7552,
      "tokat": 7553,
      "gözük": 7554,
      "##etici": 7555,
      "##kal": 7556,
      "gala": 7557,
      "hid": 7558,
      "kadını": 7559,
      "istiyorsanız": 7560,
      "liraya": 7561,
      "yürek": 7562,
      "teşkil": 7563,
      "prim": 7564,
      "##racak": 7565,
      "yılına": 7566,
      "eline": 7567,
      "maliye": 7568,
      "##likler": 7569,
      "kade": 7570,
      "##eyn": 7571,
      "öv": 7572,
      "halkının": 7573,
      "toto": 7574,
      "ortasında": 7575,
      "##müştür": 7576,
      "köpe": 7577,
      "bölgedeki": 7578,
      "are": 7579,
      "sözleşmesi": 7580,
      "yazıcı": 7581,
      "tekst": 7582,
      "hakkındaki": 7583,
      "liman": 7584,
      "sağlanması": 7585,
      "olaylar": 7586,
      "rejim": 7587,
      "dondur": 7588,
      "çoğunluk": 7589,
      "yapmayı": 7590,
      "ked": 7591,
      "ölen": 7592,
      "birine": 7593,
      "töreni": 7594,
      "##ınızın": 7595,
      "kktc": 7596,
      "##baycan": 7597,
      "getirilen": 7598,
      "aydınlat": 7599,
      "##rit": 7600,
      "malzemeleri": 7601,
      "gergin": 7602,
      "adresi": 7603,
      "tamir": 7604,
      "ısrar": 7605,
      "delil": 7606,
      "koyun": 7607,
      "çalışmaların": 7608,
      "yoksul": 7609,
      "fidan": 7610,
      "78": 7611,
      "tedar": 7612,
      "yoğ": 7613,
      "##bilirim": 7614,
      "muha": 7615,
      "körfez": 7616,
      "zu": 7617,
      "ıl": 7618,
      "bulunma": 7619,
      "mağlup": 7620,
      "len": 7621,
      "ipek": 7622,
      "şiddetli": 7623,
      "sınavı": 7624,
      "keskin": 7625,
      "##landırma": 7626,
      "##burg": 7627,
      "buğ": 7628,
      "verdik": 7629,
      "sendika": 7630,
      "oyuncusu": 7631,
      "sürdü": 7632,
      "giyim": 7633,
      "sebeple": 7634,
      "##ife": 7635,
      "özer": 7636,
      "pres": 7637,
      "olmayacak": 7638,
      "##16": 7639,
      "tehlike": 7640,
      "azerbaycan": 7641,
      "ilerleyen": 7642,
      "##vat": 7643,
      "üyeli": 7644,
      "sanal": 7645,
      "tarafında": 7646,
      "lay": 7647,
      "bilmiyorum": 7648,
      "72": 7649,
      "##ruklu": 7650,
      "taşımak": 7651,
      "benimle": 7652,
      "##melerini": 7653,
      "burun": 7654,
      "gazeteci": 7655,
      "vermektedir": 7656,
      "##amaz": 7657,
      "##viç": 7658,
      "bozul": 7659,
      "koyu": 7660,
      "istihbar": 7661,
      "samsung": 7662,
      "hakaret": 7663,
      "lüks": 7664,
      "kullanılması": 7665,
      "bitki": 7666,
      "hakkını": 7667,
      "kursu": 7668,
      "ulaşmak": 7669,
      "anım": 7670,
      "dalı": 7671,
      "fah": 7672,
      "banyo": 7673,
      "yapabilirsiniz": 7674,
      "avcı": 7675,
      "kole": 7676,
      "kadına": 7677,
      "filmin": 7678,
      "##fan": 7679,
      "ülkelerin": 7680,
      "sürdürülebilir": 7681,
      "başbakanı": 7682,
      "yazdığı": 7683,
      "##000": 7684,
      "##lanırken": 7685,
      "kurucu": 7686,
      "gözleri": 7687,
      "kalacak": 7688,
      "ilişkileri": 7689,
      "donanım": 7690,
      "alanına": 7691,
      "##iledi": 7692,
      "tom": 7693,
      "tuttu": 7694,
      "zihin": 7695,
      "##aray": 7696,
      "burak": 7697,
      "##imden": 7698,
      "okumak": 7699,
      "mülte": 7700,
      "fatura": 7701,
      "korunması": 7702,
      "2002": 7703,
      "işleme": 7704,
      "gezi": 7705,
      "şimdiden": 7706,
      "sürü": 7707,
      "##18": 7708,
      "forum": 7709,
      "##ld": 7710,
      "bizden": 7711,
      "camii": 7712,
      "göstermek": 7713,
      "##ladığımız": 7714,
      "##tayız": 7715,
      "bulgar": 7716,
      "çevres": 7717,
      "edilmektedir": 7718,
      "tıb": 7719,
      "war": 7720,
      "tc": 7721,
      "çim": 7722,
      "editoryal": 7723,
      "çıkması": 7724,
      "görüldü": 7725,
      "ederiz": 7726,
      "garant": 7727,
      "değişikliği": 7728,
      "kutu": 7729,
      "adil": 7730,
      "muhatabı": 7731,
      "caz": 7732,
      "gas": 7733,
      "##yaj": 7734,
      "boşan": 7735,
      "türkiye´de": 7736,
      "kadros": 7737,
      "korkunç": 7738,
      "bakalım": 7739,
      "erdi": 7740,
      "dolara": 7741,
      "##gn": 7742,
      "kurtarı": 7743,
      "tamamlandı": 7744,
      "olmasa": 7745,
      "##dular": 7746,
      "başından": 7747,
      "işit": 7748,
      "mantık": 7749,
      "paralel": 7750,
      "utan": 7751,
      "ci": 7752,
      "haftasında": 7753,
      "turan": 7754,
      "garip": 7755,
      "##ezil": 7756,
      "özdemir": 7757,
      "eskiden": 7758,
      "blok": 7759,
      "masraf": 7760,
      "vermesi": 7761,
      "arayan": 7762,
      "sahada": 7763,
      "tüketici": 7764,
      "gelişen": 7765,
      "yaşadı": 7766,
      "faaliyetleri": 7767,
      "saatleri": 7768,
      "lam": 7769,
      "medeniyet": 7770,
      "etiket": 7771,
      "##tikleri": 7772,
      "##layınız": 7773,
      "tüz": 7774,
      "tekir": 7775,
      "koleksiyon": 7776,
      "nato": 7777,
      "nefret": 7778,
      "##rip": 7779,
      "dokuz": 7780,
      "bulunduk": 7781,
      "tutum": 7782,
      "insana": 7783,
      "mekaniz": 7784,
      "ukray": 7785,
      "##lanmaktadır": 7786,
      "başkanımız": 7787,
      "duyduğu": 7788,
      "##idi": 7789,
      "büyüklüğ": 7790,
      "başakşehir": 7791,
      "evli": 7792,
      "sıkış": 7793,
      "alay": 7794,
      "suna": 7795,
      "suyun": 7796,
      "kaybı": 7797,
      "dudak": 7798,
      "yolun": 7799,
      "leh": 7800,
      "olabilecek": 7801,
      "##cası": 7802,
      "anlatıyor": 7803,
      "ayrım": 7804,
      "##şek": 7805,
      "kritik": 7806,
      "konfor": 7807,
      "kapısı": 7808,
      "96": 7809,
      "kayıtlı": 7810,
      "##utin": 7811,
      "##oft": 7812,
      "##liman": 7813,
      "dünyası": 7814,
      "kütah": 7815,
      "yavru": 7816,
      "ettiklerini": 7817,
      "deneme": 7818,
      "operasyonu": 7819,
      "piyasaya": 7820,
      "avustur": 7821,
      "reform": 7822,
      "2005": 7823,
      "medi": 7824,
      "ediyordu": 7825,
      "ayrıldı": 7826,
      "tavır": 7827,
      "temsilcileri": 7828,
      "çadır": 7829,
      "mide": 7830,
      "etmeyi": 7831,
      "enfeksiyon": 7832,
      "sürdüren": 7833,
      "oğlum": 7834,
      "hepimiz": 7835,
      "hikmet": 7836,
      "ceph": 7837,
      "çıl": 7838,
      "das": 7839,
      "dördüncü": 7840,
      "sunduğu": 7841,
      "herkesi": 7842,
      "dor": 7843,
      "dağıtım": 7844,
      "brezil": 7845,
      "bedeli": 7846,
      "sözler": 7847,
      "çevresinde": 7848,
      "##alog": 7849,
      "neş": 7850,
      "oranda": 7851,
      "79": 7852,
      "sağanak": 7853,
      "olurken": 7854,
      "##unuzu": 7855,
      "neyse": 7856,
      "##fil": 7857,
      "gözya": 7858,
      "ndaki": 7859,
      "şan": 7860,
      "dönemine": 7861,
      "gebe": 7862,
      "öp": 7863,
      "makyaj": 7864,
      "##14": 7865,
      "yolunu": 7866,
      "tohum": 7867,
      "sözcüsü": 7868,
      "lat": 7869,
      "##wer": 7870,
      "tuğ": 7871,
      "anlamlı": 7872,
      "çabuk": 7873,
      "tasarı": 7874,
      "ekiplerinin": 7875,
      "out": 7876,
      "youtu": 7877,
      "orij": 7878,
      "müzakere": 7879,
      "##ladıkları": 7880,
      "##müştü": 7881,
      "silin": 7882,
      "katkıda": 7883,
      "afet": 7884,
      "##pet": 7885,
      "nar": 7886,
      "denge": 7887,
      "doğur": 7888,
      "##ledim": 7889,
      "adnan": 7890,
      "denildi": 7891,
      "##çilik": 7892,
      "değilim": 7893,
      "kuvvetli": 7894,
      "genişlet": 7895,
      "devamını": 7896,
      "##has": 7897,
      "araçlar": 7898,
      "veli": 7899,
      "##sed": 7900,
      "##ganda": 7901,
      "paylaştı": 7902,
      "isyan": 7903,
      "##ure": 7904,
      "sitesinde": 7905,
      "##erler": 7906,
      "##uldak": 7907,
      "bizleri": 7908,
      "hükümetin": 7909,
      "diyanet": 7910,
      "yayımlanan": 7911,
      "çalışır": 7912,
      "deli": 7913,
      "görülüyor": 7914,
      "senar": 7915,
      "##onguldak": 7916,
      "tün": 7917,
      "vas": 7918,
      "başladım": 7919,
      "yapay": 7920,
      "neticesinde": 7921,
      "gre": 7922,
      "parlamen": 7923,
      "ithalat": 7924,
      "##maraş": 7925,
      "yatırımcı": 7926,
      "##´te": 7927,
      "tamamı": 7928,
      "öykü": 7929,
      "tir": 7930,
      "sağladı": 7931,
      "##vin": 7932,
      "doktora": 7933,
      "makale": 7934,
      "##madım": 7935,
      "macer": 7936,
      "portf": 7937,
      "zamanla": 7938,
      "hele": 7939,
      "dönen": 7940,
      "olgun": 7941,
      "ailenin": 7942,
      "taşıyor": 7943,
      "öğrencisi": 7944,
      "başlatıldı": 7945,
      "kaymakamı": 7946,
      "kurmak": 7947,
      "##operatif": 7948,
      "##elli": 7949,
      "kupa": 7950,
      "turgut": 7951,
      "tarihinden": 7952,
      "burs": 7953,
      "tescil": 7954,
      "##xy": 7955,
      "fuarı": 7956,
      "dediği": 7957,
      "zeki": 7958,
      "olama": 7959,
      "krizi": 7960,
      "##luğa": 7961,
      "##vert": 7962,
      "miras": 7963,
      "kılın": 7964,
      "tüp": 7965,
      "çavuşoğlu": 7966,
      "kaynağ": 7967,
      "varlığı": 7968,
      "haftalık": 7969,
      "müsa": 7970,
      "##enkul": 7971,
      "etkisiz": 7972,
      "hâkim": 7973,
      "##ök": 7974,
      "duruyor": 7975,
      "çizgi": 7976,
      "kahramanmaraş": 7977,
      "teklifi": 7978,
      "duygusal": 7979,
      "mail": 7980,
      "ekiplerince": 7981,
      "dü": 7982,
      "you": 7983,
      "oturan": 7984,
      "zonguldak": 7985,
      "pozit": 7986,
      "##ester": 7987,
      "intihar": 7988,
      "hırsız": 7989,
      "##tral": 7990,
      "##fed": 7991,
      "oyunlar": 7992,
      "telek": 7993,
      "visit": 7994,
      "programları": 7995,
      "84": 7996,
      "kalıp": 7997,
      "##eneral": 7998,
      "babasının": 7999,
      "seyret": 8000,
      "görülür": 8001,
      "platformu": 8002,
      "hazret": 8003,
      "mevcuttur": 8004,
      "ilimiz": 8005,
      "##ledik": 8006,
      "irti": 8007,
      "##lanmasına": 8008,
      "kars": 8009,
      "miktarı": 8010,
      "tedarik": 8011,
      "62": 8012,
      "dünyadaki": 8013,
      "##site": 8014,
      "editörlerinin": 8015,
      "##ğit": 8016,
      "mm": 8017,
      "tekstil": 8018,
      "kurtarma": 8019,
      "kaba": 8020,
      "verdim": 8021,
      "numarası": 8022,
      "oluşturmak": 8023,
      "##iyo": 8024,
      "global": 8025,
      "##bahar": 8026,
      "serin": 8027,
      "enstitüsü": 8028,
      "sezonu": 8029,
      "olduğunda": 8030,
      "2004": 8031,
      "küf": 8032,
      "hepsini": 8033,
      "sınırları": 8034,
      "##akk": 8035,
      "##âz": 8036,
      "yon": 8037,
      "karan": 8038,
      "sünnet": 8039,
      "sermay": 8040,
      "##uc": 8041,
      "kapit": 8042,
      "##ish": 8043,
      "lib": 8044,
      "##acaktır": 8045,
      "sanı": 8046,
      "##iyesi": 8047,
      "gerçekleştirilecek": 8048,
      "stok": 8049,
      "sizleri": 8050,
      "sahipliği": 8051,
      "##üme": 8052,
      "kader": 8053,
      "amatör": 8054,
      "yapıldığını": 8055,
      "başkanları": 8056,
      "bonus": 8057,
      "##ileriyle": 8058,
      "##imini": 8059,
      "##esu": 8060,
      "dha": 8061,
      "yükselen": 8062,
      "dayanıklı": 8063,
      "yapın": 8064,
      "yayınlandı": 8065,
      "##name": 8066,
      "melek": 8067,
      "86": 8068,
      "geçirmek": 8069,
      "özür": 8070,
      "##matı": 8071,
      "dükkan": 8072,
      "kooperatif": 8073,
      "bre": 8074,
      "edildiğini": 8075,
      "bahsed": 8076,
      "##poz": 8077,
      "this": 8078,
      "listesi": 8079,
      "annem": 8080,
      "tarla": 8081,
      "girişimi": 8082,
      "##lerimizde": 8083,
      "berlin": 8084,
      "suçlu": 8085,
      "buluştu": 8086,
      "verdiğini": 8087,
      "##imle": 8088,
      "suçundan": 8089,
      "teşekkürler": 8090,
      "namazı": 8091,
      "tarihine": 8092,
      "##mayacağı": 8093,
      "örneği": 8094,
      "##lanıp": 8095,
      "emr": 8096,
      "çe": 8097,
      "yirmi": 8098,
      "katk": 8099,
      "nereye": 8100,
      "karn": 8101,
      "##lenerek": 8102,
      "kontrolü": 8103,
      "tuva": 8104,
      "başlatılan": 8105,
      "aksi": 8106,
      "##ılacak": 8107,
      "##abilen": 8108,
      "yurtdış": 8109,
      "gücünü": 8110,
      "dışındaki": 8111,
      "dola": 8112,
      "##gari": 8113,
      "##önü": 8114,
      "tavuk": 8115,
      "gölü": 8116,
      "##ates": 8117,
      "kedi": 8118,
      "versiyon": 8119,
      "##cilerin": 8120,
      "kolaylaştır": 8121,
      "büro": 8122,
      "##düs": 8123,
      "katlı": 8124,
      "kaygı": 8125,
      "isterim": 8126,
      "madalya": 8127,
      "zul": 8128,
      "##ati": 8129,
      "muhar": 8130,
      "nihayet": 8131,
      "yakıt": 8132,
      "one": 8133,
      "bla": 8134,
      "gözlerini": 8135,
      "kadık": 8136,
      "kos": 8137,
      "oktay": 8138,
      "çatışma": 8139,
      "karşılığında": 8140,
      "##ektif": 8141,
      "dom": 8142,
      "tekirdağ": 8143,
      "denilen": 8144,
      "sn": 8145,
      "mümkündür": 8146,
      "##imet": 8147,
      "ote": 8148,
      "sesli": 8149,
      "pahalı": 8150,
      "tıbbi": 8151,
      "##gini": 8152,
      "davut": 8153,
      "kg": 8154,
      "söyler": 8155,
      "yetkilileri": 8156,
      "çarşı": 8157,
      "##ğınızda": 8158,
      "emeklilik": 8159,
      "uygulamaya": 8160,
      "ifadesini": 8161,
      "##nn": 8162,
      "##aca": 8163,
      "##rop": 8164,
      "kendinizi": 8165,
      "tol": 8166,
      "arayış": 8167,
      "kampany": 8168,
      "konular": 8169,
      "98": 8170,
      "website": 8171,
      "bizimle": 8172,
      "ordusu": 8173,
      "rengi": 8174,
      "talebi": 8175,
      "##chen": 8176,
      "dk": 8177,
      "etmez": 8178,
      "böb": 8179,
      "estetik": 8180,
      "yoldan": 8181,
      "özlem": 8182,
      "koku": 8183,
      "uyruklu": 8184,
      "##dikal": 8185,
      "hesabı": 8186,
      "gayrimenkul": 8187,
      "doy": 8188,
      "##çılar": 8189,
      "haksız": 8190,
      "kütahya": 8191,
      "bilgilendirme": 8192,
      "grafik": 8193,
      "dede": 8194,
      "##kâr": 8195,
      "ahmed": 8196,
      "muz": 8197,
      "vuruş": 8198,
      "planlama": 8199,
      "uf": 8200,
      "göv": 8201,
      "işten": 8202,
      "hayatına": 8203,
      "hamur": 8204,
      "ikna": 8205,
      "##larımızda": 8206,
      "saatte": 8207,
      "ikamet": 8208,
      "japon": 8209,
      "açtığı": 8210,
      "##çilerin": 8211,
      "97": 8212,
      "geçerek": 8213,
      "getirerek": 8214,
      "onlarla": 8215,
      "şarj": 8216,
      "##âl": 8217,
      "geçiren": 8218,
      "deh": 8219,
      "hitap": 8220,
      "beton": 8221,
      "havaliman": 8222,
      "sistemin": 8223,
      "keyf": 8224,
      "##ting": 8225,
      "87": 8226,
      "gro": 8227,
      "kurumlar": 8228,
      "##memeli": 8229,
      "stres": 8230,
      "okula": 8231,
      "##banın": 8232,
      "otomobilin": 8233,
      "##şen": 8234,
      "haberine": 8235,
      "kadıköy": 8236,
      "olurdu": 8237,
      "bulaş": 8238,
      "açıklamasında": 8239,
      "gidiş": 8240,
      "##malıyız": 8241,
      "içecek": 8242,
      "etkisiyle": 8243,
      "kısmını": 8244,
      "oluşum": 8245,
      "oynadığı": 8246,
      "##lilerin": 8247,
      "peyn": 8248,
      "anlamında": 8249,
      "orijinal": 8250,
      "karışık": 8251,
      "efend": 8252,
      "##tüğü": 8253,
      "##asa": 8254,
      "ettiğimiz": 8255,
      "şimdiye": 8256,
      "yerlere": 8257,
      "kentin": 8258,
      "toplanan": 8259,
      "##inda": 8260,
      "boyun": 8261,
      "dönemlerde": 8262,
      "sürücüsü": 8263,
      "##emizi": 8264,
      "##cev": 8265,
      "hepsinin": 8266,
      "yoluna": 8267,
      "sektörünün": 8268,
      "korkut": 8269,
      "sizlerle": 8270,
      "itiraf": 8271,
      "##eceksiniz": 8272,
      "müsabaka": 8273,
      "otomotiv": 8274,
      "olmuyor": 8275,
      "sonradan": 8276,
      "##dağı": 8277,
      "##lova": 8278,
      "##luğun": 8279,
      "elektrikli": 8280,
      "emeği": 8281,
      "firmamız": 8282,
      "şoför": 8283,
      "limit": 8284,
      "mutfa": 8285,
      "baştan": 8286,
      "##abileceği": 8287,
      "zararlı": 8288,
      "çalışı": 8289,
      "köyünde": 8290,
      "dediler": 8291,
      "##likten": 8292,
      "yazarı": 8293,
      "##ice": 8294,
      "kızılay": 8295,
      "soruları": 8296,
      "oynayan": 8297,
      "daima": 8298,
      "teknolojik": 8299,
      "topluluk": 8300,
      "dayanışma": 8301,
      "##lamıştır": 8302,
      "gelmiştir": 8303,
      "asf": 8304,
      "kızın": 8305,
      "çekerek": 8306,
      "gran": 8307,
      "##danın": 8308,
      "##ilmişti": 8309,
      "##ünce": 8310,
      "##esun": 8311,
      "şansı": 8312,
      "gökhan": 8313,
      "ilçede": 8314,
      "etkinlikleri": 8315,
      "durak": 8316,
      "havaalan": 8317,
      "eseri": 8318,
      "kurşun": 8319,
      "tarafı": 8320,
      "izleyen": 8321,
      "geçmek": 8322,
      "ağab": 8323,
      "##luğunu": 8324,
      "##liğinden": 8325,
      "engin": 8326,
      "heyeti": 8327,
      "izleme": 8328,
      "şirketleri": 8329,
      "oyuncak": 8330,
      "zem": 8331,
      "bağlam": 8332,
      "mühendisliği": 8333,
      "2003": 8334,
      "milletler": 8335,
      "veriler": 8336,
      "karbon": 8337,
      "değişen": 8338,
      "göze": 8339,
      "suriyeli": 8340,
      "##ıyorlar": 8341,
      "canlandır": 8342,
      "hariç": 8343,
      "istedim": 8344,
      "plana": 8345,
      "yardımıyla": 8346,
      "kazanmak": 8347,
      "telekom": 8348,
      "##dırma": 8349,
      "##göz": 8350,
      "yetişkin": 8351,
      "88": 8352,
      "insanlık": 8353,
      "edici": 8354,
      "##yim": 8355,
      "geçmişte": 8356,
      "isimler": 8357,
      "dünyayı": 8358,
      "aşık": 8359,
      "kütüphan": 8360,
      "istiklal": 8361,
      "çarptı": 8362,
      "kodu": 8363,
      "onlardan": 8364,
      "gözler": 8365,
      "işlemler": 8366,
      "asgari": 8367,
      "katılımıyla": 8368,
      "iske": 8369,
      "amerikalı": 8370,
      "doğalgaz": 8371,
      "fatma": 8372,
      "ret": 8373,
      "##zersiz": 8374,
      "formu": 8375,
      "iktid": 8376,
      "yeterince": 8377,
      "dergisi": 8378,
      "##ılmıştı": 8379,
      "düzgün": 8380,
      "##vası": 8381,
      "bağlantısı": 8382,
      "köken": 8383,
      "liradan": 8384,
      "füz": 8385,
      "robot": 8386,
      "##liydi": 8387,
      "ruhsat": 8388,
      "##masız": 8389,
      "nitekim": 8390,
      "pakistan": 8391,
      "hocam": 8392,
      "##imizle": 8393,
      "kenti": 8394,
      "egzersiz": 8395,
      "isteyenler": 8396,
      "doğrusu": 8397,
      "endi": 8398,
      "gun": 8399,
      "rey": 8400,
      "sahipleri": 8401,
      "bilimleri": 8402,
      "döner": 8403,
      "söyleyerek": 8404,
      "zamanlı": 8405,
      "milyonlarca": 8406,
      "girdiği": 8407,
      "bulabilirsiniz": 8408,
      "##yd": 8409,
      "dinamik": 8410,
      "##17": 8411,
      "##attin": 8412,
      "bası": 8413,
      "beda": 8414,
      "bekir": 8415,
      "pozitif": 8416,
      "sıcaklık": 8417,
      "olayları": 8418,
      "meb": 8419,
      "##duktan": 8420,
      "##dk": 8421,
      "bilinc": 8422,
      "dağıt": 8423,
      "tazminat": 8424,
      "etrafında": 8425,
      "##çısı": 8426,
      "vergisi": 8427,
      "karşımıza": 8428,
      "kararını": 8429,
      "varan": 8430,
      "mecbur": 8431,
      "##caya": 8432,
      "##lanmaya": 8433,
      "atış": 8434,
      "##io": 8435,
      "çalışmalarının": 8436,
      "almıştır": 8437,
      "##ct": 8438,
      "teki": 8439,
      "konuşmada": 8440,
      "ürünün": 8441,
      "sıradan": 8442,
      "gerçeği": 8443,
      "##umuza": 8444,
      "rize": 8445,
      "türkmen": 8446,
      "sömür": 8447,
      "otob": 8448,
      "öfk": 8449,
      "hırsızlık": 8450,
      "ayet": 8451,
      "şekli": 8452,
      "kurtu": 8453,
      "şeyden": 8454,
      "aldıkları": 8455,
      "yaratıcı": 8456,
      "##larınızın": 8457,
      "##mekle": 8458,
      "hedefi": 8459,
      "kadınlara": 8460,
      "çıkma": 8461,
      "olmasının": 8462,
      "istihbarat": 8463,
      "##ag": 8464,
      "güçleri": 8465,
      "giresun": 8466,
      "sorular": 8467,
      "olmakla": 8468,
      "istikamet": 8469,
      "gençlerin": 8470,
      "youtube": 8471,
      "olmazsa": 8472,
      "fıs": 8473,
      "##çileri": 8474,
      "heykel": 8475,
      "##berg": 8476,
      "anlaya": 8477,
      "##aydı": 8478,
      "nil": 8479,
      "asan": 8480,
      "işini": 8481,
      "avusturya": 8482,
      "ukrayna": 8483,
      "##vil": 8484,
      "laci": 8485,
      "ine": 8486,
      "##tüsü": 8487,
      "yalı": 8488,
      "dert": 8489,
      "cap": 8490,
      "sekreteri": 8491,
      "kimin": 8492,
      "##halde": 8493,
      "##lası": 8494,
      "kişilere": 8495,
      "geçirdiği": 8496,
      "##cy": 8497,
      "taahh": 8498,
      "inanılmaz": 8499,
      "çalışmalara": 8500,
      "yazısı": 8501,
      "yiy": 8502,
      "1000": 8503,
      "general": 8504,
      "yüzme": 8505,
      "oyuncular": 8506,
      "yıldan": 8507,
      "##meme": 8508,
      "anlatı": 8509,
      "alp": 8510,
      "##türü": 8511,
      "vekil": 8512,
      "göstermektedir": 8513,
      "kaybed": 8514,
      "char": 8515,
      "aktardı": 8516,
      "çapında": 8517,
      "semt": 8518,
      "ray": 8519,
      "hikaye": 8520,
      "##gılı": 8521,
      "bakımı": 8522,
      "kimseye": 8523,
      "teşkilatı": 8524,
      "muta": 8525,
      "83": 8526,
      "yardımı": 8527,
      "yalova": 8528,
      "##acağım": 8529,
      "pis": 8530,
      "ismini": 8531,
      "beslen": 8532,
      "diyorum": 8533,
      "ınstagram": 8534,
      "rep": 8535,
      "800": 8536,
      "intik": 8537,
      "doku": 8538,
      "vesile": 8539,
      "balkan": 8540,
      "94": 8541,
      "real": 8542,
      "##ilerinde": 8543,
      "meme": 8544,
      "toprağa": 8545,
      "yürüm": 8546,
      "içme": 8547,
      "ayrıntılı": 8548,
      "hakkari": 8549,
      "akım": 8550,
      "memnuniyet": 8551,
      "layık": 8552,
      "##iyiz": 8553,
      "##oks": 8554,
      "ayrılan": 8555,
      "##ğeri": 8556,
      "full": 8557,
      "düzenledi": 8558,
      "binası": 8559,
      "89": 8560,
      "##´ı": 8561,
      "gerçekleştirdiği": 8562,
      "##portaj": 8563,
      "bulur": 8564,
      "##bert": 8565,
      "##tez": 8566,
      "montaj": 8567,
      "mağaz": 8568,
      "##kova": 8569,
      "organik": 8570,
      "##vaz": 8571,
      "suya": 8572,
      "öğrenme": 8573,
      "ertesi": 8574,
      "sekreter": 8575,
      "kek": 8576,
      "##lerinize": 8577,
      "venez": 8578,
      "ekledi": 8579,
      "ekipman": 8580,
      "micros": 8581,
      "tüt": 8582,
      "yüzüne": 8583,
      "refid": 8584,
      "yürürlüğe": 8585,
      "tarifi": 8586,
      "prog": 8587,
      "rahatlıkla": 8588,
      "##maktır": 8589,
      "herhalde": 8590,
      "##lıyordu": 8591,
      "uydu": 8592,
      "harita": 8593,
      "isa": 8594,
      "merkezli": 8595,
      "erzin": 8596,
      "sevinç": 8597,
      "sözcü": 8598,
      "umarım": 8599,
      "anma": 8600,
      "madrid": 8601,
      "obj": 8602,
      "etkinliği": 8603,
      "serdar": 8604,
      "yıllarında": 8605,
      "görevlisi": 8606,
      "satılık": 8607,
      "röportaj": 8608,
      "##lon": 8609,
      "yapılabil": 8610,
      "binanın": 8611,
      "##ehr": 8612,
      "oluşturduğu": 8613,
      "tavan": 8614,
      "yaptıklarını": 8615,
      "teknolojileri": 8616,
      "ünal": 8617,
      "##onsor": 8618,
      "başlandı": 8619,
      "##kusuz": 8620,
      "##duklarını": 8621,
      "kudüs": 8622,
      "##lanmıştı": 8623,
      "ölçek": 8624,
      "##cik": 8625,
      "sergi": 8626,
      "atılan": 8627,
      "ödey": 8628,
      "pik": 8629,
      "##miyordu": 8630,
      "dürüst": 8631,
      "göst": 8632,
      "sponsor": 8633,
      "##ive": 8634,
      "endişe": 8635,
      "alakalı": 8636,
      "alacağı": 8637,
      "turiz": 8638,
      "çekin": 8639,
      "tıkan": 8640,
      "yarısı": 8641,
      "##wor": 8642,
      "tahliye": 8643,
      "aza": 8644,
      "##emiyor": 8645,
      "koruyucu": 8646,
      "ayağa": 8647,
      "odaklı": 8648,
      "##uld": 8649,
      "karşılığı": 8650,
      "aksesu": 8651,
      "82": 8652,
      "ergen": 8653,
      "akademisyen": 8654,
      "teknolojisi": 8655,
      "hırist": 8656,
      "##diğin": 8657,
      "uyarınca": 8658,
      "cezalandır": 8659,
      "harekat": 8660,
      "##ena": 8661,
      "yazan": 8662,
      "koydu": 8663,
      "##utma": 8664,
      "biber": 8665,
      "yönetmelik": 8666,
      "tesisleri": 8667,
      "uygulamalar": 8668,
      "noktaya": 8669,
      "sizden": 8670,
      "loj": 8671,
      "kuruş": 8672,
      "boru": 8673,
      "istenen": 8674,
      "topar": 8675,
      "##ebiliyor": 8676,
      "veda": 8677,
      "alanlarında": 8678,
      "öğrenmek": 8679,
      "denir": 8680,
      "##cell": 8681,
      "yetene": 8682,
      "giderken": 8683,
      "kırmız": 8684,
      "yücel": 8685,
      "##uncu": 8686,
      "derne": 8687,
      "##mus": 8688,
      "üyelerinin": 8689,
      "##lanmasını": 8690,
      "nişan": 8691,
      "reddet": 8692,
      "##larınıza": 8693,
      "rahatsızlık": 8694,
      "gerekirse": 8695,
      "have": 8696,
      "seçimleri": 8697,
      "duman": 8698,
      "muhalif": 8699,
      "##irim": 8700,
      "oturum": 8701,
      "ulaşan": 8702,
      "ülkelerde": 8703,
      "meşru": 8704,
      "yazıları": 8705,
      "bastır": 8706,
      "2001": 8707,
      "gene": 8708,
      "yemeği": 8709,
      "turu": 8710,
      "domat": 8711,
      "veter": 8712,
      "üretici": 8713,
      "seminer": 8714,
      "başarısız": 8715,
      "ligde": 8716,
      "##dine": 8717,
      "##alya": 8718,
      "getiriyor": 8719,
      "görüle": 8720,
      "şirketler": 8721,
      "onarım": 8722,
      "seviyorum": 8723,
      "dinle": 8724,
      "şahit": 8725,
      "##tel": 8726,
      "yağlı": 8727,
      "ypg": 8728,
      "araştırmalar": 8729,
      "uzaktan": 8730,
      "adaylar": 8731,
      "##mıyorum": 8732,
      "firmalar": 8733,
      "##mda": 8734,
      "sonuçta": 8735,
      "kentinde": 8736,
      "##amış": 8737,
      "üyelik": 8738,
      "##tiğim": 8739,
      "şe": 8740,
      "sag": 8741,
      "mühendislik": 8742,
      "hastanesine": 8743,
      "sistemine": 8744,
      "detaylar": 8745,
      "geleceğe": 8746,
      "ihmal": 8747,
      "fikri": 8748,
      "##ılmaya": 8749,
      "bedava": 8750,
      "sosya": 8751,
      "dizisi": 8752,
      "elbise": 8753,
      "budur": 8754,
      "more": 8755,
      "yönetici": 8756,
      "kalmak": 8757,
      "kolları": 8758,
      "oynay": 8759,
      "##sten": 8760,
      "mektu": 8761,
      "karşıy": 8762,
      "kanada": 8763,
      "acık": 8764,
      "kayser": 8765,
      "bildirim": 8766,
      "eng": 8767,
      "cevab": 8768,
      "##arap": 8769,
      "ağırlık": 8770,
      "asfalt": 8771,
      "evlat": 8772,
      "erzincan": 8773,
      "yüzünü": 8774,
      "uzaklaştır": 8775,
      "bankacılık": 8776,
      "##lülük": 8777,
      "beraberlik": 8778,
      "##gor": 8779,
      "izmit": 8780,
      "##dişah": 8781,
      "##eğin": 8782,
      "arıza": 8783,
      "somut": 8784,
      "gereksin": 8785,
      "partinin": 8786,
      "üzün": 8787,
      "parayı": 8788,
      "sizlerin": 8789,
      "çıkmak": 8790,
      "randev": 8791,
      "ortadoğu": 8792,
      "restoran": 8793,
      "##yeri": 8794,
      "nereden": 8795,
      "##ml": 8796,
      "keşfet": 8797,
      "hayati": 8798,
      "frag": 8799,
      "gelmektedir": 8800,
      "özkan": 8801,
      "haftanın": 8802,
      "etken": 8803,
      "işveren": 8804,
      "tarihte": 8805,
      "kullanıcılar": 8806,
      "ley": 8807,
      "görünen": 8808,
      "çığ": 8809,
      "koordinasyon": 8810,
      "oğul": 8811,
      "##bilmek": 8812,
      "işle": 8813,
      "şem": 8814,
      "erol": 8815,
      "##cal": 8816,
      "veriyoruz": 8817,
      "mum": 8818,
      "galaxy": 8819,
      "danışmanlık": 8820,
      "afganistan": 8821,
      "kategorisinde": 8822,
      "moskova": 8823,
      "kaşı": 8824,
      "taksit": 8825,
      "190": 8826,
      "meselesi": 8827,
      "etap": 8828,
      "değerleri": 8829,
      "anlayışı": 8830,
      "ülkeleri": 8831,
      "içeriği": 8832,
      "aldığımız": 8833,
      "rakib": 8834,
      "bilişim": 8835,
      "tarzı": 8836,
      "bekleme": 8837,
      "kib": 8838,
      "##ian": 8839,
      "##larımızdan": 8840,
      "lastik": 8841,
      "##ızı": 8842,
      "çıkarmak": 8843,
      "ötürü": 8844,
      "tutk": 8845,
      "tekne": 8846,
      "haftası": 8847,
      "macar": 8848,
      "fikr": 8849,
      "seçmen": 8850,
      "politikası": 8851,
      "esir": 8852,
      "abone": 8853,
      "bakar": 8854,
      "vatandaşlara": 8855,
      "hâl": 8856,
      "programına": 8857,
      "böylelikle": 8858,
      "ailesinin": 8859,
      "konuları": 8860,
      "salonunda": 8861,
      "kültürü": 8862,
      "kısmında": 8863,
      "evvel": 8864,
      "yeryüz": 8865,
      "piyan": 8866,
      "terörle": 8867,
      "yaya": 8868,
      "istedik": 8869,
      "gelmişti": 8870,
      "minibüs": 8871,
      "cek": 8872,
      "birimi": 8873,
      "birleşmiş": 8874,
      "bitti": 8875,
      "sözde": 8876,
      "alınmış": 8877,
      "edecektir": 8878,
      "evrak": 8879,
      "##akar": 8880,
      "##diğinden": 8881,
      "nitelikli": 8882,
      "##ach": 8883,
      "down": 8884,
      "yapmanız": 8885,
      "##tığımızda": 8886,
      "kullanılabilir": 8887,
      "##linik": 8888,
      "mevzuat": 8889,
      "kendisinden": 8890,
      "rüzg": 8891,
      "##ularak": 8892,
      "tıklayınız": 8893,
      "muam": 8894,
      "türkler": 8895,
      "##eyerek": 8896,
      "insani": 8897,
      "konusundaki": 8898,
      "max": 8899,
      "meteor": 8900,
      "yakınları": 8901,
      "borc": 8902,
      "ilanı": 8903,
      "profil": 8904,
      "yemin": 8905,
      "görüşmeler": 8906,
      "##tre": 8907,
      "mel": 8908,
      "sigort": 8909,
      "muhtemelen": 8910,
      "bilinmeyen": 8911,
      "zer": 8912,
      "fig": 8913,
      "düzenle": 8914,
      "##ola": 8915,
      "kentsel": 8916,
      "##balaj": 8917,
      "karşılaştır": 8918,
      "mater": 8919,
      "##yeni": 8920,
      "elbis": 8921,
      "selçuklu": 8922,
      "hotel": 8923,
      "vize": 8924,
      "çanta": 8925,
      "albayrak": 8926,
      "oluşturulan": 8927,
      "##yat": 8928,
      "artarak": 8929,
      "sistemini": 8930,
      "hatip": 8931,
      "olimpiyat": 8932,
      "padişah": 8933,
      "tuhaf": 8934,
      "kuruluşu": 8935,
      "cerrahi": 8936,
      "sergilen": 8937,
      "harcama": 8938,
      "##laşması": 8939,
      "##ýr": 8940,
      "tahta": 8941,
      "demokrat": 8942,
      "kılav": 8943,
      "##dön": 8944,
      "portföy": 8945,
      "gı": 8946,
      "##lüğünü": 8947,
      "yüklü": 8948,
      "seçenekleri": 8949,
      "##tıracak": 8950,
      "ambalaj": 8951,
      "çiko": 8952,
      "##iret": 8953,
      "işletim": 8954,
      "##sus": 8955,
      "konaklama": 8956,
      "##sar": 8957,
      "##sındaki": 8958,
      "getiril": 8959,
      "##hu": 8960,
      "ilham": 8961,
      "bayrağı": 8962,
      "kalitesi": 8963,
      "kurumları": 8964,
      "ulaştırma": 8965,
      "şarkıcı": 8966,
      "digit": 8967,
      "##uştuk": 8968,
      "nice": 8969,
      "##ction": 8970,
      "kuruluşları": 8971,
      "ilgilendir": 8972,
      "başlamıştı": 8973,
      "atmos": 8974,
      "söylem": 8975,
      "sök": 8976,
      "coğrafya": 8977,
      "##biliyor": 8978,
      "93": 8979,
      "aleyh": 8980,
      "year": 8981,
      "kocaman": 8982,
      "##bür": 8983,
      "gökyüz": 8984,
      "emanet": 8985,
      "taksi": 8986,
      "asit": 8987,
      "isimleri": 8988,
      "yetkililer": 8989,
      "porno": 8990,
      "üreten": 8991,
      "sektörün": 8992,
      "yazarlar": 8993,
      "##ûl": 8994,
      "1999": 8995,
      "##beri": 8996,
      "işlemlerinin": 8997,
      "şaşkın": 8998,
      "##lemeyi": 8999,
      "tartı": 9000,
      "bilmiyor": 9001,
      "üzeri": 9002,
      "görüntüler": 9003,
      "şifre": 9004,
      "nesne": 9005,
      "izlemek": 9006,
      "özgün": 9007,
      "##13": 9008,
      "##ılıp": 9009,
      "şehirde": 9010,
      "programda": 9011,
      "donald": 9012,
      "emper": 9013,
      "700": 9014,
      "artıyor": 9015,
      "##taç": 9016,
      "zamana": 9017,
      "##larsa": 9018,
      "##une": 9019,
      "mahallesinde": 9020,
      "liralık": 9021,
      "başarıyla": 9022,
      "##hington": 9023,
      "anıt": 9024,
      "ibaret": 9025,
      "will": 9026,
      "oz": 9027,
      "gönderilen": 9028,
      "##yaz": 9029,
      "sunmak": 9030,
      "tarihe": 9031,
      "federasyon": 9032,
      "süresince": 9033,
      "deplasmanda": 9034,
      "microsoft": 9035,
      "cah": 9036,
      "riski": 9037,
      "tırman": 9038,
      "girecek": 9039,
      "lacivert": 9040,
      "evrensel": 9041,
      "##gücü": 9042,
      "müdürlüğüne": 9043,
      "akraba": 9044,
      "kendime": 9045,
      "azalı": 9046,
      "birinde": 9047,
      "tarihlerinde": 9048,
      "cevabı": 9049,
      "polisin": 9050,
      "şüphesiz": 9051,
      "cinsiyet": 9052,
      "##cili": 9053,
      "burcu": 9054,
      "##ülüğ": 9055,
      "eşsiz": 9056,
      "olmasın": 9057,
      "##iminde": 9058,
      "##dıkça": 9059,
      "arkadaşım": 9060,
      "##ulacak": 9061,
      "yla": 9062,
      "kastam": 9063,
      "gittiği": 9064,
      "baskın": 9065,
      "tarihinin": 9066,
      "sov": 9067,
      "##tılı": 9068,
      "şap": 9069,
      "gev": 9070,
      "anlamak": 9071,
      "süz": 9072,
      "kriter": 9073,
      "tutun": 9074,
      "birbirlerine": 9075,
      "stil": 9076,
      "http": 9077,
      "washington": 9078,
      "yansıt": 9079,
      "işsizlik": 9080,
      "##ildik": 9081,
      "yetki": 9082,
      "çözümü": 9083,
      "iştir": 9084,
      "açılması": 9085,
      "rec": 9086,
      "askerlik": 9087,
      "hayvancılık": 9088,
      "yarışması": 9089,
      "yolculuğ": 9090,
      "ülkeyi": 9091,
      "razı": 9092,
      "##alis": 9093,
      "kandil": 9094,
      "faruk": 9095,
      "ııı": 9096,
      "etkileri": 9097,
      "kapatı": 9098,
      "fırtına": 9099,
      "onlarca": 9100,
      "yıkama": 9101,
      "##gk": 9102,
      "kitabın": 9103,
      "yazın": 9104,
      "gelişmeleri": 9105,
      "planlanan": 9106,
      "sıralama": 9107,
      "hayatında": 9108,
      "giyen": 9109,
      "pır": 9110,
      "##br": 9111,
      "belde": 9112,
      "sıç": 9113,
      "kısaca": 9114,
      "yorumlar": 9115,
      "ms": 9116,
      "gösterilen": 9117,
      "kurulması": 9118,
      "koordinatör": 9119,
      "çıkara": 9120,
      "##allı": 9121,
      "kucak": 9122,
      "belirsiz": 9123,
      "##kın": 9124,
      "oyunc": 9125,
      "metrekare": 9126,
      "bürok": 9127,
      "##28": 9128,
      "##bası": 9129,
      "kasab": 9130,
      "##27": 9131,
      "##parta": 9132,
      "anlata": 9133,
      "devamlı": 9134,
      "##tte": 9135,
      "##emeyecek": 9136,
      "çalışırken": 9137,
      "flor": 9138,
      "girmek": 9139,
      "idlib": 9140,
      "yapılmaktadır": 9141,
      "izleyic": 9142,
      "kaynaklı": 9143,
      "##zir": 9144,
      "##zen": 9145,
      "çıkarılan": 9146,
      "köt": 9147,
      "satıcı": 9148,
      "venezu": 9149,
      "##dıra": 9150,
      "##ırda": 9151,
      "konulu": 9152,
      "gösteri": 9153,
      "çorum": 9154,
      "oluşur": 9155,
      "eti": 9156,
      "odaları": 9157,
      "mücadelesi": 9158,
      "saldırgan": 9159,
      "dolandırıcı": 9160,
      "##das": 9161,
      "müth": 9162,
      "izni": 9163,
      "istediklerini": 9164,
      "farkındalık": 9165,
      "şampiyonluk": 9166,
      "samimi": 9167,
      "bileti": 9168,
      "nakit": 9169,
      "karayol": 9170,
      "##api": 9171,
      "all": 9172,
      "ifadesi": 9173,
      "olayda": 9174,
      "##60": 9175,
      "böbrek": 9176,
      "söylediği": 9177,
      "##luğunda": 9178,
      "hazırladığı": 9179,
      "şampiyonlar": 9180,
      "alanya": 9181,
      "masaj": 9182,
      "##îr": 9183,
      "krem": 9184,
      "bot": 9185,
      "vatandaşın": 9186,
      "ediyorlar": 9187,
      "geze": 9188,
      "yüzyılın": 9189,
      "pist": 9190,
      "domates": 9191,
      "##ıplak": 9192,
      "##vanı": 9193,
      "verilmiştir": 9194,
      "gözü": 9195,
      "zah": 9196,
      "santral": 9197,
      "araçların": 9198,
      "pencer": 9199,
      "karabük": 9200,
      "edenler": 9201,
      "zır": 9202,
      "toplantıya": 9203,
      "wat": 9204,
      "asay": 9205,
      "soya": 9206,
      "ceh": 9207,
      "olabileceğini": 9208,
      "programında": 9209,
      "hani": 9210,
      "ülkemize": 9211,
      "yahudi": 9212,
      "müthiş": 9213,
      "belirgin": 9214,
      "kurduğu": 9215,
      "misyon": 9216,
      "kullanıyor": 9217,
      "##ilebilecek": 9218,
      "##ılmak": 9219,
      "##saspor": 9220,
      "görevden": 9221,
      "kampanyası": 9222,
      "kaynaklanan": 9223,
      "sitemiz": 9224,
      "aşamasında": 9225,
      "##leyebilirsiniz": 9226,
      "aksaray": 9227,
      "öncü": 9228,
      "girip": 9229,
      "##yesi": 9230,
      "adamları": 9231,
      "##ker": 9232,
      "mekân": 9233,
      "yargıtay": 9234,
      "fal": 9235,
      "##cav": 9236,
      "##cay": 9237,
      "olanların": 9238,
      "show": 9239,
      "balkon": 9240,
      "gb": 9241,
      "kömür": 9242,
      "merkezleri": 9243,
      "##idin": 9244,
      "arke": 9245,
      "##çekmece": 9246,
      "hatırlatan": 9247,
      "##takım": 9248,
      "ilde": 9249,
      "##taydı": 9250,
      "kaynaklar": 9251,
      "##ã¢": 9252,
      "kopya": 9253,
      "##aklı": 9254,
      "olsaydı": 9255,
      "sezonun": 9256,
      "otopark": 9257,
      "islami": 9258,
      "müraca": 9259,
      "##dıran": 9260,
      "edeceğini": 9261,
      "tecrübeli": 9262,
      "avu": 9263,
      "bursaspor": 9264,
      "titiz": 9265,
      "arazi": 9266,
      "hazırlanıyor": 9267,
      "##lamalar": 9268,
      "yapılmıştır": 9269,
      "kesi": 9270,
      "ihsan": 9271,
      "yapılarak": 9272,
      "milletimizin": 9273,
      "##sün": 9274,
      "##tının": 9275,
      "önemlisi": 9276,
      "bulma": 9277,
      "çamaş": 9278,
      "##lerimizle": 9279,
      "dersi": 9280,
      "180": 9281,
      "zeytinya": 9282,
      "##kas": 9283,
      "##mede": 9284,
      "kaptan": 9285,
      "memuru": 9286,
      "##ect": 9287,
      "paylaşmak": 9288,
      "uydur": 9289,
      "dostluk": 9290,
      "muhafaza": 9291,
      "isveç": 9292,
      "rot": 9293,
      "##iştir": 9294,
      "serisi": 9295,
      "diğeri": 9296,
      "katil": 9297,
      "ili": 9298,
      "kurucusu": 9299,
      "bire": 9300,
      "bilimler": 9301,
      "##ope": 9302,
      "pre": 9303,
      "ederler": 9304,
      "##sapp": 9305,
      "##üldüğü": 9306,
      "davası": 9307,
      "dönüp": 9308,
      "girer": 9309,
      "çakır": 9310,
      "sayısını": 9311,
      "yöneticileri": 9312,
      "##laz": 9313,
      "verileri": 9314,
      "olabilirsiniz": 9315,
      "nadir": 9316,
      "hic": 9317,
      "güzer": 9318,
      "bk": 9319,
      "propa": 9320,
      "müdürlük": 9321,
      "cüz": 9322,
      "##idor": 9323,
      "yüzyılda": 9324,
      "koşulları": 9325,
      "şam": 9326,
      "öğrenim": 9327,
      "bakanlar": 9328,
[...]
